{
  "version": "1.0",
  "truncation": null,
  "padding": null,
  "added_tokens": [
    {
      "id": 0,
      "content": "[UNK]",
      "single_word": false,
      "lstrip": false,
      "rstrip": false,
      "normalized": false,
      "special": true
    },
    {
      "id": 1,
      "content": "[PAD]",
      "single_word": false,
      "lstrip": false,
      "rstrip": false,
      "normalized": false,
      "special": true
    },
    {
      "id": 2,
      "content": "[BOS]",
      "single_word": false,
      "lstrip": false,
      "rstrip": false,
      "normalized": false,
      "special": true
    },
    {
      "id": 3,
      "content": "[EOS]",
      "single_word": false,
      "lstrip": false,
      "rstrip": false,
      "normalized": false,
      "special": true
    }
  ],
  "normalizer": {
    "type": "NFKC"
  },
  "pre_tokenizer": {
    "type": "ByteLevel",
    "add_prefix_space": false,
    "trim_offsets": true,
    "use_regex": true
  },
  "post_processor": null,
  "decoder": {
    "type": "ByteLevel",
    "add_prefix_space": true,
    "trim_offsets": true,
    "use_regex": true
  },
  "model": {
    "type": "BPE",
    "dropout": null,
    "unk_token": "[UNK]",
    "continuing_subword_prefix": null,
    "end_of_word_suffix": null,
    "fuse_unk": false,
    "byte_fallback": false,
    "ignore_merges": false,
    "vocab": {
      "[UNK]": 0,
      "[PAD]": 1,
      "[BOS]": 2,
      "[EOS]": 3,
      "!": 4,
      "\"": 5,
      "#": 6,
      "&": 7,
      "'": 8,
      "(": 9,
      ")": 10,
      "*": 11,
      "+": 12,
      ",": 13,
      "-": 14,
      ".": 15,
      "/": 16,
      "0": 17,
      "1": 18,
      "2": 19,
      "3": 20,
      "4": 21,
      "5": 22,
      "6": 23,
      "7": 24,
      "8": 25,
      "9": 26,
      ":": 27,
      ";": 28,
      "<": 29,
      "=": 30,
      ">": 31,
      "?": 32,
      "A": 33,
      "B": 34,
      "C": 35,
      "D": 36,
      "E": 37,
      "F": 38,
      "G": 39,
      "H": 40,
      "I": 41,
      "J": 42,
      "K": 43,
      "L": 44,
      "M": 45,
      "N": 46,
      "O": 47,
      "P": 48,
      "Q": 49,
      "R": 50,
      "S": 51,
      "T": 52,
      "U": 53,
      "V": 54,
      "W": 55,
      "X": 56,
      "Y": 57,
      "Z": 58,
      "[": 59,
      "\\": 60,
      "]": 61,
      "^": 62,
      "_": 63,
      "a": 64,
      "b": 65,
      "c": 66,
      "d": 67,
      "e": 68,
      "f": 69,
      "g": 70,
      "h": 71,
      "i": 72,
      "j": 73,
      "k": 74,
      "l": 75,
      "m": 76,
      "n": 77,
      "o": 78,
      "p": 79,
      "q": 80,
      "r": 81,
      "s": 82,
      "t": 83,
      "u": 84,
      "v": 85,
      "w": 86,
      "x": 87,
      "y": 88,
      "z": 89,
      "{": 90,
      "}": 91,
      "¢": 92,
      "©": 93,
      "·": 94,
      "¹": 95,
      "º": 96,
      "»": 97,
      "¿": 98,
      "Â": 99,
      "Ã": 100,
      "Å": 101,
      "Î": 102,
      "Ï": 103,
      "×": 104,
      "â": 105,
      "ï": 106,
      "Ċ": 107,
      "Ġ": 108,
      "Ģ": 109,
      "Ĥ": 110,
      "Ħ": 111,
      "İ": 112,
      "ı": 113,
      "Ĵ": 114,
      "Ķ": 115,
      "ķ": 116,
      "Ĺ": 117,
      "ĺ": 118,
      "Ļ": 119,
      "ľ": 120,
      "Ŀ": 121,
      "ĠĠ": 122,
      "Ġt": 123,
      "he": 124,
      "Ġa": 125,
      "ĠĠĠĠ": 126,
      "in": 127,
      "âĢ": 128,
      "Ġs": 129,
      "Ġthe": 130,
      "Ġo": 131,
      "re": 132,
      "Ġw": 133,
      "nd": 134,
      "er": 135,
      "ha": 136,
      "ou": 137,
      "it": 138,
      "le": 139,
      "is": 140,
      "ĠĠĠĠĠĠĠĠ": 141,
      "en": 142,
      "on": 143,
      "Ġm": 144,
      "or": 145,
      "Ġb": 146,
      "Ġc": 147,
      "ing": 148,
      "Ġof": 149,
      "Ġf": 150,
      "Ġto": 151,
      "Ġand": 152,
      "ed": 153,
      "st": 154,
      "Ġin": 155,
      "ar": 156,
      "âĢľ": 157,
      "Ġd": 158,
      "âĢĿ": 159,
      "ll": 160,
      "an": 161,
      "at": 162,
      "Ġp": 163,
      "ce": 164,
      "ow": 165,
      "ĠI": 166,
      "Ġn": 167,
      "se": 168,
      "Ġl": 169,
      "om": 170,
      "ĠĠĠ": 171,
      "Ġhe": 172,
      "as": 173,
      "Ġha": 174,
      "es": 175,
      "ot": 176,
      "ut": 177,
      "Ġh": 178,
      "Ġit": 179,
      "hat": 180,
      "ĠĠĠĠĠĠĠĠĠĠĠĠĠĠĠĠ": 181,
      "Ġg": 182,
      "Ġbe": 183,
      "ion": 184,
      "âĢĻ": 185,
      "et": 186,
      "ly": 187,
      "Ġe": 188,
      "ic": 189,
      "Ġy": 190,
      "gh": 191,
      "im": 192,
      "Ġth": 193,
      "id": 194,
      "ve": 195,
      "ĠâĢľ": 196,
      "al": 197,
      "The": 198,
      "ver": 199,
      "ĠA": 200,
      "Ġyou": 201,
      "ct": 202,
      "Ġu": 203,
      "ent": 204,
      "ld": 205,
      "ur": 206,
      "Ġshe": 207,
      "Ġwas": 208,
      "Ġthat": 209,
      "ir": 210,
      "Ġon": 211,
      "Ġre": 212,
      ".âĢĿ": 213,
      "ay": 214,
      "ith": 215,
      "Ġis": 216,
      "Ġr": 217,
      "Ġse": 218,
      "Ġher": 219,
      "ght": 220,
      "Ġas": 221,
      "ad": 222,
      "ch": 223,
      "ist": 224,
      "Ġfor": 225,
      "oo": 226,
      "Ġnot": 227,
      "Ġwh": 228,
      "Ġwith": 229,
      "ĠM": 230,
      "li": 231,
      "her": 232,
      "âĢĶ": 233,
      "te": 234,
      "if": 235,
      "ĠThe": 236,
      "am": 237,
      "ĠS": 238,
      "Ġle": 239,
      "ge": 240,
      "ort": 241,
      "ab": 242,
      "ĠC": 243,
      "ri": 244,
      "Ġat": 245,
      "ke": 246,
      "Ġan": 247,
      "ill": 248,
      "ĠB": 249,
      "and": 250,
      "Ġhis": 251,
      "qu": 252,
      "ould": 253,
      "ro": 254,
      "ord": 255,
      "ust": 256,
      "ain": 257,
      "ĠW": 258,
      "ter": 259,
      "Ġsa": 260,
      "ER": 261,
      "Ġme": 262,
      "ĠL": 263,
      "Ġst": 264,
      "HA": 265,
      "pe": 266,
      "ven": 267,
      "Ġdo": 268,
      "PT": 269,
      "ol": 270,
      "ss": 271,
      "ck": 272,
      "HAPT": 273,
      "HAPTER": 274,
      "Ġwe": 275,
      "Ġhad": 276,
      "Ġup": 277,
      "ure": 278,
      "Ġ1": 279,
      "ĠH": 280,
      "Ġor": 281,
      "Ġde": 282,
      "ance": 283,
      "CHAPTER": 284,
      "Ġ_": 285,
      "sh": 286,
      "lf": 287,
      "ore": 288,
      "th": 289,
      "un": 290,
      ",âĢĿ": 291,
      "ond": 292,
      "Ġall": 293,
      "to": 294,
      "Ġhave": 295,
      "row": 296,
      "ight": 297,
      "ĠF": 298,
      "ction": 299,
      "all": 300,
      "ul": 301,
      "ind": 302,
      "ome": 303,
      "ound": 304,
      "itt": 305,
      "ook": 306,
      "rom": 307,
      "Ġk": 308,
      "Ġso": 309,
      "very": 310,
      "ous": 311,
      "Ġ=": 312,
      "ĠP": 313,
      "lice": 314,
      "ich": 315,
      "Ġsaid": 316,
      "\"\"": 317,
      ">>": 318,
      "ra": 319,
      "Ġsh": 320,
      "ĠĠĠĠĠĠĠĠĠĠĠĠĠĠĠĠĠĠĠĠĠĠĠĠĠĠĠĠĠĠĠĠ": 321,
      "Ġbut": 322,
      "Ġmy": 323,
      "!âĢĿ": 324,
      "em": 325,
      "Ġby": 326,
      "hale": 327,
      "istance": 328,
      "Ġwhe": 329,
      "out": 330,
      "Ġthis": 331,
      "Ġsu": 332,
      "the": 333,
      "red": 334,
      "own": 335,
      "Ġv": 336,
      "ĠĠĠĠĠĠĠ": 337,
      "ers": 338,
      "Ġone": 339,
      "ast": 340,
      "ile": 341,
      "ĠD": 342,
      "Ġqu": 343,
      "ation": 344,
      "?âĢĿ": 345,
      "nt": 346,
      "tein": 347,
      "vensh": 348,
      "venshtein": 349,
      "ĠT": 350,
      "Ġwhich": 351,
      "word": 352,
      "Ġif": 353,
      "self": 354,
      "irst": 355,
      "Ġne": 356,
      "op": 357,
      "um": 358,
      "Ġout": 359,
      "ĠAlice": 360,
      "able": 361,
      "il": 362,
      "ate": 363,
      "ĠN": 364,
      "Ġare": 365,
      "han": 366,
      "ame": 367,
      "ittle": 368,
      "Ġli": 369,
      "urn": 370,
      "Ġkn": 371,
      "Ġal": 372,
      "our": 373,
      "Ġfrom": 374,
      "ard": 375,
      "Ġcom": 376,
      "Ġno": 377,
      "_.": 378,
      "el": 379,
      "Ġ2": 380,
      "ant": 381,
      "ost": 382,
      "ĠE": 383,
      "ĠâĢĶ": 384,
      "est": 385,
      "py": 386,
      "ry": 387,
      "ther": 388,
      "us": 389,
      "Ġex": 390,
      "distance": 391,
      "sort": 392,
      "Ġab": 393,
      "ong": 394,
      "Ġcon": 395,
      "Ġwho": 396,
      "ĠâĢĶ_": 397,
      "ĠG": 398,
      "Ġvery": 399,
      "Ġwill": 400,
      "od": 401,
      "Ġim": 402,
      "Ġdown": 403,
      "Ġpre": 404,
      "Ġlittle": 405,
      "ouse": 406,
      "ough": 407,
      "reat": 408,
      "one": 409,
      "olle": 410,
      "cond": 411,
      "ick": 412,
      "ious": 413,
      "art": 414,
      "ak": 415,
      "Ġthere": 416,
      "Ġman": 417,
      "Ġfe": 418,
      "Ġhim": 419,
      "Ġwhen": 420,
      "pp": 421,
      "ish": 422,
      "Ġinto": 423,
      "ollection": 424,
      "Ġthey": 425,
      "Ġwhat": 426,
      "ag": 427,
      "de": 428,
      "ink": 429,
      "ess": 430,
      "lo": 431,
      "Ġ(": 432,
      "ĠR": 433,
      "ĠMr": 434,
      "ice": 435,
      "Ġj": 436,
      "led": 437,
      "Ġgo": 438,
      "Ġtw": 439,
      "ite": 440,
      "ark": 441,
      "Ġany": 442,
      "Ġlike": 443,
      "Ġknow": 444,
      "ake": 445,
      "turn": 446,
      "fe": 447,
      "ive": 448,
      "Ġag": 449,
      "\")": 450,
      "per": 451,
      "ple": 452,
      "hed": 453,
      "ity": 454,
      "Ġcould": 455,
      "Ġhas": 456,
      "ions": 457,
      "Ġam": 458,
      "Ġthem": 459,
      "Ġother": 460,
      "Ġpo": 461,
      "Ġwere": 462,
      "ber": 463,
      "ĠO": 464,
      "Ġ>>": 465,
      "Ġwhale": 466,
      "Ġfirst": 467,
      "Ġlevenshtein": 468,
      "Ġ>>>": 469,
      "hing": 470,
      "of": 471,
      "ser": 472,
      "ĠĠĠĠĠ": 473,
      "ĠIt": 474,
      "Ġabout": 475,
      "Ġtim": 476,
      "Ġca": 477,
      "Ġbeen": 478,
      "Ġyour": 479,
      "Ġsee": 480,
      "be": 481,
      "ig": 482,
      "iz": 483,
      "Ġwould": 484,
      "hap": 485,
      "ood": 486,
      "iv": 487,
      "pt": 488,
      "way": 489,
      "ide": 490,
      "He": 491,
      "Ġ-": 492,
      "Ġsome": 493,
      "Ġmore": 494,
      "age": 495,
      "ack": 496,
      "ire": 497,
      "Ġmust": 498,
      "ass": 499,
      "Ġthing": 500,
      "ried": 501,
      "ult": 502,
      "ac": 503,
      "po": 504,
      "par": 505,
      "Ġ[": 506,
      "ine": 507,
      "Ġlook": 508,
      "Ġhow": 509,
      "Ġun": 510,
      "Ġ*": 511,
      "Ġway": 512,
      "Ġword": 513,
      "Ġcan": 514,
      "Ġthink": 515,
      "(\"": 516,
      "__": 517,
      "ng": 518,
      "Ġthan": 519,
      "int": 520,
      "You": 521,
      "ever": 522,
      "Ġen": 523,
      "Ġtheir": 524,
      "ie": 525,
      "uch": 526,
      "ars": 527,
      "Ġlo": 528,
      "Ġgreat": 529,
      "ble": 530,
      "ies": 531,
      "pl": 532,
      "Ġ3": 533,
      "Ġ\"\"": 534,
      "Ġaf": 535,
      "Ġsha": 536,
      "erge": 537,
      "Ġcollection": 538,
      "Ġlist": 539,
      "ĠAnd": 540,
      "ĠWhale": 541,
      "Ġupon": 542,
      "ace": 543,
      "ment": 544,
      "ue": 545,
      "Ġar": 546,
      "Ġsort": 547,
      "Ġthen": 548,
      "ought": 549,
      "Ġreturn": 550,
      "ĠĠĠĠĠĠĠĠĠĠĠĠĠĠĠĠĠĠĠĠĠĠĠĠĠĠĠĠĠĠĠĠĠĠĠĠĠĠĠĠ": 551,
      "Ġtwo": 552,
      "Ġtime": 553,
      "fore": 554,
      "Ġ#": 555,
      "Ġad": 556,
      "Ġits": 557,
      "Ġherself": 558,
      "ĠLe": 559,
      "ex": 560,
      "we": 561,
      "Ġ:": 562,
      "iss": 563,
      "Ġcur": 564,
      "Ġres": 565,
      "Ġagain": 566,
      "au": 567,
      "are": 568,
      "ves": 569,
      "ren": 570,
      "ary": 571,
      "ally": 572,
      "Ġsuch": 573,
      "ud": 574,
      "Ġmay": 575,
      "Ġget": 576,
      "Ġro": 577,
      "man": 578,
      "wn": 579,
      "Ġ+": 580,
      "Ġmerge": 581,
      "ĠFile": 582,
      "Ġshould": 583,
      "bit": 584,
      "mes": 585,
      "ĠV": 586,
      "Ġsay": 587,
      "ated": 588,
      "Ġpro": 589,
      "olmes": 590,
      "net": 591,
      "Ġwor": 592,
      "ater": 593,
      "ĠSt": 594,
      "Ġprev": 595,
      "40": 596,
      "his": 597,
      "mark": 598,
      "Ġ\"": 599,
      "Ġover": 600,
      "rent": 601,
      "nder": 602,
      "ĠĠĠĠĠĠĠĠĠĠĠ": 603,
      "Ġpl": 604,
      "Ġpr": 605,
      "Ġhand": 606,
      "Ġsecond": 607,
      "ady": 608,
      "ĠNot": 609,
      "ized": 610,
      "ell": 611,
      "ft": 612,
      "ip": 613,
      "tim": 614,
      "âĢĺ": 615,
      "ount": 616,
      "Ġmuch": 617,
      "Ġch": 618,
      "Ġtoo": 619,
      "Ġdid": 620,
      "Ġper": 621,
      "Ġnow": 622,
      "Ġright": 623,
      "ĠBen": 624,
      "ĠHe": 625,
      "put": 626,
      "tain": 627,
      "ree": 628,
      "Ġbet": 629,
      "Ġlen": 630,
      "Ġimp": 631,
      "oll": 632,
      "ĠJ": 633,
      "Ġtr": 634,
      "Ġoff": 635,
      "Ġus": 636,
      "Ġ\"\"\"": 637,
      "Ġprevious": 638,
      "ep": 639,
      "first": 640,
      "ness": 641,
      "that": 642,
      "tions": 643,
      "Ġ4": 644,
      "Ġown": 645,
      "ise": 646,
      "ory": 647,
      "ather": 648,
      "Ġpart": 649,
      "second": 650,
      "Ġbeg": 651,
      "Ġthought": 652,
      "ĠHolmes": 653,
      "ap": 654,
      "ting": 655,
      "Ġsm": 656,
      "Ġcha": 657,
      "404": 658,
      "\",": 659,
      "._": 660,
      "Ġac": 661,
      "ense": 662,
      "Ġmost": 663,
      "Ġhere": 664,
      "Ġseem": 665,
      "Ġdear": 666,
      "ĠFound": 667,
      "optim": 668,
      "optimized": 669,
      "--": 670,
      "ged": 671,
      "og": 672,
      "ose": 673,
      "Ġ5": 674,
      "ress": 675,
      "Ġmin": 676,
      "Ġdistance": 677,
      "Ġlar": 678,
      "Ġbefore": 679,
      "ading": 680,
      "ĠMiss": 681,
      "ĠBut": 682,
      "Ġstr": 683,
      "Ġquite": 684,
      "ĠBennet": 685,
      "book": 686,
      "ling": 687,
      "she": 688,
      "ons": 689,
      "Ġbl": 690,
      "ingle": 691,
      "Ġlong": 692,
      "Ġevery": 693,
      "alk": 694,
      "Ġunder": 695,
      "Ġsea": 696,
      "ade": 697,
      "ife": 698,
      "ract": 699,
      "Ġjust": 700,
      "hapter": 701,
      "It": 702,
      "ci": 703,
      "ect": 704,
      "Ġmight": 705,
      "Ġbr": 706,
      "atter": 707,
      "other": 708,
      "ĠAd": 709,
      "ĠAust": 710,
      "Ġonce": 711,
      "ĠShe": 712,
      "abbit": 713,
      "param": 714,
      "ach": 715,
      "for": 716,
      "hy": 717,
      "ning": 718,
      "ĠâĢĺ": 719,
      "Ġcome": 720,
      "str": 721,
      "Ġdif": 722,
      "ĠĠĠĠĠĠĠĠĠĠĠĠĠĠĠĠĠĠĠĠĠĠĠĠ": 723,
      "Ġgr": 724,
      "Ġgood": 725,
      "Ġbeing": 726,
      "Ġey": 727,
      "ĠChapter": 728,
      "Ġdoor": 729,
      "onder": 730,
      "Ġ==": 731,
      "Ġquick": 732,
      "Ġnever": 733,
      "Heading": 734,
      "ĠAusten": 735,
      "..": 736,
      "But": 737,
      "ail": 738,
      "che": 739,
      "com": 740,
      "ne": 741,
      "up": 742,
      "ull": 743,
      "uck": 744,
      "Ġent": 745,
      "ertain": 746,
      "Ġdis": 747,
      "Ġpa": 748,
      "omet": 749,
      "Ġafter": 750,
      "And": 751,
      "igh": 752,
      "old": 753,
      "ub": 754,
      "ving": 755,
      "you": 756,
      "Ġ0": 757,
      "ĠX": 758,
      "hen": 759,
      "Ġwent": 760,
      "less": 761,
      "Ġfind": 762,
      "Ġinte": 763,
      "ats": 764,
      "Ġhar": 765,
      "Ġhalf": 766,
      "Ġonly": 767,
      "Ġnothing": 768,
      "ĠThere": 769,
      "pect": 770,
      "thon": 771,
      "Ġsub": 772,
      "ivot": 773,
      "Ġcurrent": 774,
      "Ġresult": 775,
      "ful": 776,
      "ject": 777,
      "most": 778,
      "not": 779,
      "ws": 780,
      "Ġtake": 781,
      "Ġsp": 782,
      "Ġob": 783,
      "reet": 784,
      "Ġmake": 785,
      "Ġmade": 786,
      "Ġcame": 787,
      "ings": 788,
      "ans": 789,
      "Ġgl": 790,
      "Ġye": 791,
      "Ġround": 792,
      "ool": 793,
      "ĠMouse": 794,
      "Ġless": 795,
      "ures": 796,
      "Ġshall": 797,
      "This": 798,
      "cy": 799,
      "so": 800,
      "was": 801,
      "here": 802,
      "Ġback": 803,
      "Ġfun": 804,
      "atch": 805,
      "Ġpe": 806,
      "Ġhead": 807,
      "Ġheard": 808,
      "Ġever": 809,
      "Ġrun": 810,
      "light": 811,
      "Ġwell": 812,
      "Ġvo": 813,
      "Ġcomm": 814,
      "Ġcons": 815,
      "Ġimport": 816,
      "])": 817,
      "collection": 818,
      "ily": 819,
      "ope": 820,
      "pen": 821,
      "Ġsw": 822,
      "Ġsame": 823,
      "Ġour": 824,
      "Ġwind": 825,
      "len": 826,
      "isit": 827,
      "Ġfound": 828,
      "Ġpivot": 829,
      "ses": 830,
      "Ġhouse": 831,
      "Ġitem": 832,
      "eth": 833,
      "Ġeven": 834,
      "ently": 835,
      "thing": 836,
      "Ġsoon": 837,
      "aking": 838,
      "ĠLevenshtein": 839,
      "Ġlarge": 840,
      "Ġdiffe": 841,
      "ale": 842,
      "but": 843,
      "con": 844,
      "end": 845,
      "ph": 846,
      "ward": 847,
      "Ġap": 848,
      "ĠĠĠĠĠĠ": 849,
      "Ġold": 850,
      "Ġwa": 851,
      "ence": 852,
      "Ġgen": 853,
      "Ġwithout": 854,
      "Ġsaw": 855,
      "haps": 856,
      "Ġthings": 857,
      "II": 858,
      "ib": 859,
      "rough": 860,
      "ĠK": 861,
      "ĠYou": 862,
      "Ġspe": 863,
      "Ġsure": 864,
      "Ġsomet": 865,
      "ither": 866,
      "Ġmar": 867,
      "Ġcl": 868,
      "Ġinde": 869,
      "Ġput": 870,
      "oment": 871,
      "Ġel": 872,
      "Ġrem": 873,
      "Ġnear": 874,
      "ĠRabbit": 875,
      "ways": 876,
      "Ġwords": 877,
      "Ġprint": 878,
      "Ġeyes": 879,
      "Ġvoice": 880,
      "ah": 881,
      "ase": 882,
      "aid": 883,
      "cl": 884,
      "ff": 885,
      "os": 886,
      "oy": 887,
      "ps": 888,
      "ration": 889,
      "ved": 890,
      "xt": 891,
      "Ġsc": 892,
      "levenshtein": 893,
      "Ġcried": 894,
      "Ġinput": 895,
      "Ġday": 896,
      "Ġpass": 897,
      "Ġnum": 898,
      "Ġear": 899,
      "ctest": 900,
      "Ġuser": 901,
      "chmark": 902,
      "Ġwhile": 903,
      "right": 904,
      "Ġdoctest": 905,
      "Ġ10": 906,
      "ign": 907,
      "Ġworld": 908,
      "act": 909,
      "from": 910,
      "ia": 911,
      "ible": 912,
      "ran": 913,
      "vent": 914,
      "Ġthese": 915,
      "Ġwom": 916,
      "Ġwater": 917,
      "ited": 918,
      "ished": 919,
      "Ġmen": 920,
      "Ġmoment": 921,
      "Ġdou": 922,
      "Ġdes": 923,
      "Ġgrow": 924,
      "ical": 925,
      "Ġthough": 926,
      "tend": 927,
      "Ġleft": 928,
      "ustration": 929,
      "ĠMrs": 930,
      "Ġroom": 931,
      "Ġminut": 932,
      "Ġhard": 933,
      "Ġappe": 934,
      "Alice": 935,
      "av": 936,
      "bt": 937,
      "by": 938,
      "ger": 939,
      "get": 940,
      "hor": 941,
      "lish": 942,
      "me": 943,
      "my": 944,
      "med": 945,
      "ner": 946,
      "name": 947,
      "Ġopen": 948,
      "rest": 949,
      "Ġwonder": 950,
      "ont": 951,
      "Ġfan": 952,
      "llustration": 953,
      "ane": 954,
      "ott": 955,
      "Ġhur": 956,
      "ict": 957,
      "Ġthose": 958,
      "vers": 959,
      "Ġuse": 960,
      "room": 961,
      "Ġdoes": 962,
      "Ġwhere": 963,
      "Ġvisit": 964,
      "Ġalmost": 965,
      "elt": 966,
      "Ġfeet": 967,
      "Ġlooked": 968,
      "Ġenough": 969,
      "ween": 970,
      "rence": 971,
      "Ġbetween": 972,
      "ogra": 973,
      "ingley": 974,
      "([": 975,
      "))": 976,
      "):": 977,
      "How": 978,
      "Oh": 979,
      "What": 980,
      "den": 981,
      "ix": 982,
      "land": 983,
      "Ġ<": 984,
      "Ġke": 985,
      "Ġtry": 986,
      "Ġtell": 987,
      "Ġaway": 988,
      "Ġset": 989,
      "itut": 990,
      "ition": 991,
      "les": 992,
      "Ġmatter": 993,
      "Ġbo": 994,
      "Ġben": 995,
      "Ġco": 996,
      "Ġchan": 997,
      "Ġcertain": 998,
      "ster": 999,
      "stitut": 1000,
      "Ġpers": 1001,
      "asure": 1002,
      "alled": 1003,
      "Then": 1004,
      "Ġrather": 1005,
      "Ġseen": 1006,
      "Ġanother": 1007,
      "aint": 1008,
      "Ġstill": 1009,
      "Ġcomp": 1010,
      "Ġpoor": 1011,
      "Ġcase": 1012,
      "Ġ->": 1013,
      "Ġlove": 1014,
      "Ġperhaps": 1015,
      "Ġbetter": 1016,
      "ollow": 1017,
      "Ġbegan": 1018,
      "Ġsmall": 1019,
      "ully": 1020,
      "Ġfunction": 1021,
      "Ġwindow": 1022,
      "Ġgener": 1023,
      "),": 1024,
      "In": 1025,
      "ho": 1026,
      "iat": 1027,
      "ild": 1028,
      "ls": 1029,
      "mer": 1030,
      "pro": 1031,
      "Ġte": 1032,
      "Ġwish": 1033,
      "Ġint": 1034,
      "Ġlast": 1035,
      "Ġhigh": 1036,
      "Ġgot": 1037,
      "Ġgive": 1038,
      "Ġele": 1039,
      "Ġthrough": 1040,
      "There": 1041,
      "Ġremark": 1042,
      "Ġask": 1043,
      "ĠThey": 1044,
      "ĠBingley": 1045,
      "Ġ18": 1046,
      "ĠEng": 1047,
      "Ġfeel": 1048,
      "berg": 1049,
      "Ġdifference": 1050,
      "Ġindeed": 1051,
      "Ġelse": 1052,
      "Illustration": 1053,
      "air": 1054,
      "cha": 1055,
      "der": 1056,
      "ew": 1057,
      "nter": 1058,
      "ove": 1059,
      "uc": 1060,
      "ught": 1061,
      "ins": 1062,
      "Ġsur": 1063,
      "ret": 1064,
      "return": 1065,
      "Ġfl": 1066,
      "Ġfire": 1067,
      "Ġfollow": 1068,
      "Ġnat": 1069,
      "sel": 1070,
      "Ġhapp": 1071,
      "Ġgu": 1072,
      "test": 1073,
      "ift": 1074,
      "Ġlet": 1075,
      "Ġanim": 1076,
      "ular": 1077,
      "Ġwhether": 1078,
      "Ġquest": 1079,
      "def": 1080,
      "fect": 1081,
      "ield": 1082,
      "Ġinterest": 1083,
      "Ġsubstitut": 1084,
      "Ġwoman": 1085,
      "Ġdoubt": 1086,
      "ograph": 1087,
      "()": 1088,
      "Mr": 1089,
      "aut": 1090,
      "cc": 1091,
      "ian": 1092,
      "with": 1093,
      "Ġ6": 1094,
      "Ġ8": 1095,
      "ĠU": 1096,
      "Ġturn": 1097,
      "hes": 1098,
      "Ġsat": 1099,
      "Ġside": 1100,
      "res": 1101,
      "outh": 1102,
      "letions": 1103,
      "lease": 1104,
      "ened": 1105,
      "Ġcour": 1106,
      "Ġfelt": 1107,
      "ang": 1108,
      "Ġph": 1109,
      "ĠIn": 1110,
      "Ġend": 1111,
      "Ġyet": 1112,
      "Ġthree": 1113,
      "ĠAs": 1114,
      "lied": 1115,
      "ĠCom": 1116,
      "riend": 1117,
      "Ġatt": 1118,
      "cket": 1119,
      "Ġdeletions": 1120,
      "Ġ__": 1121,
      "index": 1122,
      "Ġkind": 1123,
      "ĠĠĠĠĠĠĠĠĠĠĠĠĠĠĠĠĠĠĠĠĠĠĠĠĠĠĠĠĠĠĠĠĠĠĠĠĠĠĠĠĠĠĠĠĠĠĠĠ": 1124,
      "Ġalways": 1125,
      "ĠEx": 1126,
      "python": 1127,
      "sorted": 1128,
      "ody": 1129,
      "Ġmany": 1130,
      "perm": 1131,
      "Ġwhales": 1132,
      "sertions": 1133,
      "Ġadd": 1134,
      "Ġtook": 1135,
      "Ġsomething": 1136,
      "range": 1137,
      "Ġminutes": 1138,
      "Ġbenchmark": 1139,
      "Ġelement": 1140,
      "Ġsubstitutions": 1141,
      "For": 1142,
      "ave": 1143,
      "fully": 1144,
      "hich": 1145,
      "now": 1146,
      "ock": 1147,
      "rit": 1148,
      "und": 1149,
      "Ġ9": 1150,
      "Ġtill": 1151,
      "Ġair": 1152,
      "ined": 1153,
      "inah": 1154,
      "Ġsense": 1155,
      "Ġwant": 1156,
      "erate": 1157,
      "ens": 1158,
      "enberg": 1159,
      "Ġmor": 1160,
      "Ġmind": 1161,
      "Ġcalled": 1162,
      "Ġfin": 1163,
      "Ġfour": 1164,
      "aring": 1165,
      "ath": 1166,
      "ates": 1167,
      "cept": 1168,
      "Ġland": 1169,
      "Ġlife": 1170,
      "uthor": 1171,
      "utenberg": 1172,
      "Ġgir": 1173,
      "Ġem": 1174,
      "Ġeat": 1175,
      "Ġeither": 1176,
      "imes": 1177,
      "Ġrep": 1178,
      "ably": 1179,
      "ross": 1180,
      "Ġstreet": 1181,
      "ssible": 1182,
      "Ġ11": 1183,
      "itting": 1184,
      "Ġnext": 1185,
      "Ġfew": 1186,
      "lock": 1187,
      "ples": 1188,
      "aught": 1189,
      "Ġwork": 1190,
      "Ġcharact": 1191,
      "Ġseemed": 1192,
      "Ġ===": 1193,
      "Ġyears": 1194,
      "ĠEnglish": 1195,
      "Ġcourse": 1196,
      ".âĢĻ": 1197,
      "45": 1198,
      "ds": 1199,
      "ier": 1200,
      "main": 1201,
      "night": 1202,
      "pr": 1203,
      "pill": 1204,
      "use": 1205,
      "viat": 1206,
      "what": 1207,
      "ying": 1208,
      "zab": 1209,
      "Ġ7": 1210,
      "Ġtalk": 1211,
      "rew": 1212,
      "read": 1213,
      "its": 1214,
      "Ġmouse": 1215,
      "Ġcle": 1216,
      "Ġcount": 1217,
      "Ġfall": 1218,
      "Ġfriend": 1219,
      "stand": 1220,
      "Ġinst": 1221,
      "arcy": 1222,
      "Ġdon": 1223,
      "anet": 1224,
      "ĠIf": 1225,
      "oth": 1226,
      "otograph": 1227,
      "Ġhope": 1228,
      "Ġbest": 1229,
      "Ġbeaut": 1230,
      "ality": 1231,
      "ĠAr": 1232,
      "Ġyoung": 1233,
      "lizab": 1234,
      "ĠSperm": 1235,
      "Ġleast": 1236,
      "rip": 1237,
      "Ġmeasure": 1238,
      "ĠHow": 1239,
      "unc": 1240,
      "rown": 1241,
      "ĠPr": 1242,
      "ĠPy": 1243,
      "ĠPro": 1244,
      "ĠDo": 1245,
      "ately": 1246,
      "Ġcont": 1247,
      "odo": 1248,
      "iously": 1249,
      "Ġhimself": 1250,
      "Ġanything": 1251,
      "Ġarm": 1252,
      "aterpill": 1253,
      "Ġhands": 1254,
      "ĠAdvent": 1255,
      "Ġquestion": 1256,
      "viathan": 1257,
      "lizabeth": 1258,
      "aterpillar": 1259,
      "\"{": 1260,
      "(\"\"": 1261,
      "**": 1262,
      ":\\": 1263,
      "Book": 1264,
      "Enter": 1265,
      "No": 1266,
      "So": 1267,
      "We": 1268,
      "ared": 1269,
      "aws": 1270,
      "body": 1271,
      "ched": 1272,
      "count": 1273,
      "func": 1274,
      "gor": 1275,
      "ler": 1276,
      "lic": 1277,
      "little": 1278,
      "ual": 1279,
      "Ġact": 1280,
      "ince": 1281,
      "iness": 1282,
      "input": 1283,
      "Ġsl": 1284,
      "Ġser": 1285,
      "Ġsim": 1286,
      "Ġste": 1287,
      "Ġocc": 1288,
      "Ġwalk": 1289,
      "ouch": 1290,
      "item": 1291,
      "Ġmouth": 1292,
      "Ġbro": 1293,
      "Ġbook": 1294,
      "Ġcr": 1295,
      "Ġche": 1296,
      "Ġclo": 1297,
      "Ġface": 1298,
      "strip": 1299,
      "cean": 1300,
      "Ġname": 1301,
      "Ġhor": 1302,
      "Ġbec": 1303,
      "als": 1304,
      "ural": 1305,
      "ithm": 1306,
      "Ġran": 1307,
      "Ġrow": 1308,
      "Ġsec": 1309,
      "Ġass": 1310,
      "Ġwhom": 1311,
      "tem": 1312,
      "amples": 1313,
      "ĠCHAPTER": 1314,
      "ĠCaterpillar": 1315,
      "Ġans": 1316,
      "ĠBr": 1317,
      "ĠBill": 1318,
      "Ġmean": 1319,
      "pend": 1320,
      "ured": 1321,
      "Ġ12": 1322,
      "Ġorder": 1323,
      "Ġdeep": 1324,
      "ĠFor": 1325,
      "\"\"\"": 1326,
      "Ġship": 1327,
      "Ġmyself": 1328,
      "ĠDodo": 1329,
      "ations": 1330,
      "umerate": 1331,
      "Ġalgor": 1332,
      "Ġext": 1333,
      "Ġgoing": 1334,
      "\").": 1335,
      "plement": 1336,
      "Ġamong": 1337,
      "Ġpoint": 1338,
      "ĠOn": 1339,
      "pos": 1340,
      "Ġenumerate": 1341,
      "planet": 1342,
      "Ġ\"\")": 1343,
      "Ġart": 1344,
      "Ġsorted": 1345,
      "Ġadm": 1346,
      "ĠLeviathan": 1347,
      "ches": 1348,
      "Ġobser": 1349,
      "ĠExamples": 1350,
      "ĠPython": 1351,
      "(\"\",": 1352,
      "Ġalgorithm": 1353,
      "plementation": 1354,
      "My": 1355,
      "Not": 1356,
      "ON": 1357,
      "She": 1358,
      "cu": 1359,
      "ered": 1360,
      "fer": 1361,
      "gs": 1362,
      "hind": 1363,
      "ial": 1364,
      "no": 1365,
      "oh": 1366,
      "pit": 1367,
      "sc": 1368,
      "where": 1369,
      "Ġtable": 1370,
      "head": 1371,
      "Ġsle": 1372,
      "Ġspo": 1373,
      "Ġwr": 1374,
      "erm": 1375,
      "erman": 1376,
      "har": 1377,
      "ison": 1378,
      "Ġmon": 1379,
      "Ġfive": 1380,
      "Ġdri": 1381,
      "Ġdro": 1382,
      "anc": 1383,
      "cess": 1384,
      "Ġlady": 1385,
      "ason": 1386,
      "Ġhall": 1387,
      "Ġhum": 1388,
      "Ġgard": 1389,
      "ides": 1390,
      "entle": 1391,
      "ury": 1392,
      "Ġreally": 1393,
      "orth": 1394,
      "ĠBo": 1395,
      "quick": 1396,
      "ĠWhat": 1397,
      "ĠWhy": 1398,
      "ĠWhen": 1399,
      "ĠLet": 1400,
      "ĠLong": 1401,
      "Ġdelight": 1402,
      "aster": 1403,
      "iled": 1404,
      "ĠDinah": 1405,
      "ĠDarcy": 1406,
      "ĠTo": 1407,
      "ople": 1408,
      "ĠElizabeth": 1409,
      "ushed": 1410,
      "Ġwhole": 1411,
      "aken": 1412,
      "Ġfell": 1413,
      "pped": 1414,
      "ages": 1415,
      "loves": 1416,
      "Ġothers": 1417,
      "Ġpos": 1418,
      "ires": 1419,
      "Ġlooking": 1420,
      "Ġhowever": 1421,
      "Ġagainst": 1422,
      "ause": 1423,
      "Ġplace": 1424,
      "ollins": 1425,
      "wards": 1426,
      "ĠKing": 1427,
      "Ġnumber": 1428,
      "Ġhardly": 1429,
      "denly": 1430,
      "Ġperson": 1431,
      "Ġphotograph": 1432,
      "Ġcharacter": 1433,
      "Ġcountry": 1434,
      "Ġgarden": 1435,
      "00": 1436,
      "CT": 1437,
      "EN": 1438,
      "HE": 1439,
      "Now": 1440,
      "To": 1441,
      "Well": 1442,
      "aj": 1443,
      "gl": 1444,
      "how": 1445,
      "ied": 1446,
      "ks": 1447,
      "ken": 1448,
      "kes": 1449,
      "lp": 1450,
      "nce": 1451,
      "ob": 1452,
      "ront": 1453,
      "sm": 1454,
      "tt": 1455,
      "uce": 1456,
      "ĠY": 1457,
      "Ġtried": 1458,
      "hem": 1459,
      "Ġapp": 1460,
      "Ġauthor": 1461,
      "Ġought": 1462,
      "ready": 1463,
      "Ġwon": 1464,
      "Ġwife": 1465,
      "nded": 1466,
      "ery": 1467,
      "ham": 1468,
      "itu": 1469,
      "let": 1470,
      "ised": 1471,
      "Ġbott": 1472,
      "Ġcar": 1473,
      "Ġcats": 1474,
      "Ġdist": 1475,
      "ating": 1476,
      "Ġpure": 1477,
      "Ġprom": 1478,
      "ces": 1479,
      "ower": 1480,
      "Ġheart": 1481,
      "iony": 1482,
      "Ġeight": 1483,
      "icular": 1484,
      "ider": 1485,
      "alle": 1486,
      "enty": 1487,
      "Ġru": 1488,
      "Ġrand": 1489,
      "Ġsepar": 1490,
      "Ġform": 1491,
      "Ġnote": 1492,
      "Ġwhite": 1493,
      "ĠBe": 1494,
      "ĠWe": 1495,
      "ĠWh": 1496,
      "ĠLod": 1497,
      "Ġstand": 1498,
      "Ġ13": 1499,
      "Ġorde": 1500,
      "itten": 1501,
      "ĠPR": 1502,
      "ĠPre": 1503,
      "Ġknew": 1504,
      "antuck": 1505,
      "ĠGod": 1506,
      "ĠGutenberg": 1507,
      "Ġpres": 1508,
      "Ġtimes": 1509,
      "aced": 1510,
      "Ġgreater": 1511,
      "plain": 1512,
      "ĠĠĠĠĠĠĠĠĠĠĠĠĠĠĠĠĠĠĠĠĠĠĠĠĠĠĠĠĠĠĠĠĠĠĠĠĠĠĠĠĠĠĠĠĠ": 1513,
      "ĠĠĠĠĠĠĠĠĠĠĠĠĠĠĠĠĠĠĠĠĠĠĠĠĠĠĠĠĠĠĠĠĠĠĠĠĠĠĠĠĠĠĠĠĠĠ": 1514,
      "Ġadv": 1515,
      "ext": 1516,
      "rene": 1517,
      "Ġgetting": 1518,
      "ĠVoy": 1519,
      "Ġplay": 1520,
      "Ġseems": 1521,
      "ĠĠĠĠĠĠĠĠĠĠĠĠĠĠĠĠĠĠĠĠĠĠĠĠĠĠĠĠ": 1522,
      "ĠXX": 1523,
      "Ġpeople": 1524,
      "Ġconsider": 1525,
      "Ġwait": 1526,
      "Ġremem": 1527,
      "Ġcertainly": 1528,
      "Ġfollowing": 1529,
      "Ġmorning": 1530,
      "Ġreplied": 1531,
      "ĠProject": 1532,
      "tempt": 1533,
      "ĠBriony": 1534,
      "ĠLodge": 1535,
      "Ġordered": 1536,
      "\":": 1537,
      ".)": 1538,
      ".__": 1539,
      "If": 1540,
      "OK": 1541,
      "OOK": 1542,
      "That": 1543,
      "_,": 1544,
      "_.âĢĿ": 1545,
      "aw": 1546,
      "bers": 1547,
      "do": 1548,
      "ech": 1549,
      "fl": 1550,
      "gers": 1551,
      "house": 1552,
      "iet": 1553,
      "iam": 1554,
      "list": 1555,
      "mt": 1556,
      "over": 1557,
      "pop": 1558,
      "pass": 1559,
      "rink": 1560,
      "ted": 1561,
      "vid": 1562,
      "zy": 1563,
      "ĠQ": 1564,
      "Ġ{": 1565,
      "Ġide": 1566,
      "Ġsound": 1567,
      "Ġsingle": 1568,
      "Ġsitting": 1569,
      "Ġocean": 1570,
      "erous": 1571,
      "oul": 1572,
      "lect": 1573,
      "left": 1574,
      "ism": 1575,
      "Ġmut": 1576,
      "Ġmid": 1577,
      "Ġbus": 1578,
      "Ġcor": 1579,
      "Ġcab": 1580,
      "Ġcond": 1581,
      "Ġcrow": 1582,
      "Ġcall": 1583,
      "Ġcry": 1584,
      "Ġfre": 1585,
      "Ġfar": 1586,
      "Ġfal": 1587,
      "Ġfam": 1588,
      "Ġfact": 1589,
      "Ġins": 1590,
      "Ġinsertions": 1591,
      "arrow": 1592,
      "Ġdark": 1593,
      "Ġdaught": 1594,
      "any": 1595,
      "Ġnice": 1596,
      "Ġlad": 1597,
      "Ġlau": 1598,
      "Ġhear": 1599,
      "Ġhaving": 1600,
      "ute": 1601,
      "Ġhon": 1602,
      "Ġhome": 1603,
      "Ġhund": 1604,
      "Ġitself": 1605,
      "Ġgloves": 1606,
      "Ġeach": 1607,
      "ents": 1608,
      "ention": 1609,
      "Ġrec": 1610,
      "Ġreg": 1611,
      "Ġrest": 1612,
      "Ġread": 1613,
      "Ġra": 1614,
      "istory": 1615,
      "Ġfort": 1616,
      "liar": 1617,
      "gest": 1618,
      "ĠCh": 1619,
      "Ġsail": 1620,
      "ĠHis": 1621,
      "raid": 1622,
      "Ġsud": 1623,
      "iles": 1624,
      "opy": 1625,
      "ump": 1626,
      "umber": 1627,
      "Ġalready": 1628,
      "esty": 1629,
      "used": 1630,
      "Ġexp": 1631,
      "ĠGet": 1632,
      "Ġimplementation": 1633,
      "akes": 1634,
      "ĠRight": 1635,
      "Ġtwenty": 1636,
      "ize": 1637,
      "possible": 1638,
      "Ġ[]": 1639,
      "__\":": 1640,
      "Ġloc": 1641,
      "Ġafraid": 1642,
      "Ġshar": 1643,
      "Ġtimeit": 1644,
      "Ġrespect": 1645,
      "Ġ\"__": 1646,
      "Ġchild": 1647,
      "Ġperfect": 1648,
      "ĠJane": 1649,
      "Ġchar": 1650,
      "ressed": 1651,
      "Ġunderstand": 1652,
      "ney": 1653,
      "Ġglass": 1654,
      "Ġlesser": 1655,
      "gether": 1656,
      "Ġ<=": 1657,
      "Ġgeneral": 1658,
      "Ġnature": 1659,
      "selves": 1660,
      "ĠUn": 1661,
      "angu": 1662,
      "Ġclose": 1663,
      "ajesty": 1664,
      "Ġbottle": 1665,
      "Ġseparated": 1666,
      "antucket": 1667,
      "Ġhundred": 1668,
      ",âĢĻ": 1669,
      "AL": 1670,
      "Th": 1671,
      "Why": 1672,
      "can": 1673,
      "cul": 1674,
      "cise": 1675,
      "dia": 1676,
      "ek": 1677,
      "eer": 1678,
      "fin": 1679,
      "fic": 1680,
      "fort": 1681,
      "fter": 1682,
      "ired": 1683,
      "just": 1684,
      "ny": 1685,
      "nat": 1686,
      "pent": 1687,
      "ram": 1688,
      "spl": 1689,
      "tle": 1690,
      "uction": 1691,
      "will": 1692,
      "when": 1693,
      "ydia": 1694,
      "Ġes": 1695,
      "Ġtri": 1696,
      "Ġtone": 1697,
      "Ġtaken": 1698,
      "inary": 1699,
      "Ġsir": 1700,
      "Ġsix": 1701,
      "Ġsince": 1702,
      "rem": 1703,
      "ream": 1704,
      "Ġwatch": 1705,
      "nding": 1706,
      "have": 1707,
      "haling": 1708,
      "oud": 1709,
      "ene": 1710,
      "ors": 1711,
      "Ġbit": 1712,
      "Ġboth": 1713,
      "Ġfront": 1714,
      "Ġtold": 1715,
      "Ġinc": 1716,
      "arr": 1717,
      "ati": 1718,
      "Ġple": 1719,
      "Ġpri": 1720,
      "Ġpool": 1721,
      "ceiv": 1722,
      "ĠIrene": 1723,
      "Ġlow": 1724,
      "ash": 1725,
      "Ġgentle": 1726,
      "Ġbehind": 1727,
      "ets": 1728,
      "Ġequ": 1729,
      "Ġebook": 1730,
      "ĠeBook": 1731,
      "imp": 1732,
      "Ġthrow": 1733,
      "veral": 1734,
      "ĠAl": 1735,
      "ĠAn": 1736,
      "ĠAt": 1737,
      "uring": 1738,
      "irds": 1739,
      "chool": 1740,
      "oof": 1741,
      "ĠMary": 1742,
      "ĠMajesty": 1743,
      "herself": 1744,
      "herlock": 1745,
      "ific": 1746,
      "Ġlead": 1747,
      "abel": 1748,
      "illiam": 1749,
      "ters": 1750,
      "Ġmere": 1751,
      "Ġmeet": 1752,
      "ĠLond": 1753,
      "Ġ16": 1754,
      "Ġdeal": 1755,
      "Ġdelic": 1756,
      "this": 1757,
      "though": 1758,
      "allow": 1759,
      "ounds": 1760,
      "itted": 1761,
      "ousand": 1762,
      "rave": 1763,
      "Ġshow": 1764,
      "Ġsupp": 1765,
      "them": 1766,
      "aste": 1767,
      "ilence": 1768,
      "umb": 1769,
      "Ġcomes": 1770,
      "Ġcompar": 1771,
      "Ġimmed": 1772,
      "Ġimpossible": 1773,
      "aker": 1774,
      "aged": 1775,
      "again": 1776,
      "Ġgold": 1777,
      "ĠOh": 1778,
      "Ġcare": 1779,
      "iew": 1780,
      "ĠWhales": 1781,
      "Ġprob": 1782,
      "ĠStreet": 1783,
      "ĠStates": 1784,
      "Ġparty": 1785,
      "Ġbegin": 1786,
      "Ġaccount": 1787,
      "Ġlarger": 1788,
      "Ġblack": 1789,
      "ĠAdler": 1790,
      "form": 1791,
      "....": 1792,
      "Ġpair": 1793,
      "Ġswim": 1794,
      "Ġspeak": 1795,
      "Ġhurried": 1796,
      "Ġkey": 1797,
      "Ġtears": 1798,
      "Ġremarked": 1799,
      "Ġasked": 1800,
      "Ġgirls": 1801,
      "Ġbecause": 1802,
      "ĠBohem": 1803,
      "Ġpresent": 1804,
      "Ġcorner": 1805,
      "Ġhonour": 1806,
      "Ġlocated": 1807,
      "Ġsharp": 1808,
      "ĠUnited": 1809,
      "ficult": 1810,
      "ĠLondon": 1811,
      "Ġimmedi": 1812,
      ").": 1813,
      "94": 1814,
      "?âĢĶ": 1815,
      "As": 1816,
      "DE": 1817,
      "ECT": 1818,
      "IC": 1819,
      "IN": 1820,
      "When": 1821,
      "_âĢĿ": 1822,
      "ax": 1823,
      "bo": 1824,
      "back": 1825,
      "ca": 1826,
      "car": 1827,
      "ded": 1828,
      "day": 1829,
      "eed": 1830,
      "eve": 1831,
      "ford": 1832,
      "gr": 1833,
      "gy": 1834,
      "great": 1835,
      "jud": 1836,
      "king": 1837,
      "ked": 1838,
      "look": 1839,
      "min": 1840,
      "oke": 1841,
      "ru": 1842,
      "some": 1843,
      "upp": 1844,
      "val": 1845,
      "would": 1846,
      "yed": 1847,
      "Ġill": 1848,
      "Ġtouch": 1849,
      "Ġsent": 1850,
      "Ġsad": 1851,
      "Ġsign": 1852,
      "hab": 1853,
      "lent": 1854,
      "ishes": 1855,
      "Ġmo": 1856,
      "Ġmist": 1857,
      "Ġmag": 1858,
      "Ġmaking": 1859,
      "Ġmiles": 1860,
      "Ġbad": 1861,
      "Ġcat": 1862,
      "Ġcreat": 1863,
      "Ġcatch": 1864,
      "Ġfur": 1865,
      "Ġfail": 1866,
      "Ġincl": 1867,
      "Ġdry": 1868,
      "Ġpar": 1869,
      "Ġpur": 1870,
      "Ġpup": 1871,
      "ĠInd": 1872,
      "Ġner": 1873,
      "sess": 1874,
      "Ġlate": 1875,
      "Ġhelp": 1876,
      "ask": 1877,
      "Ġhabit": 1878,
      "Ġhold": 1879,
      "Ġgi": 1880,
      "Ġgone": 1881,
      "Ġbel": 1882,
      "ici": 1883,
      "ics": 1884,
      "iced": 1885,
      "ime": 1886,
      "urch": 1887,
      "Ġreach": 1888,
      "Ġreason": 1889,
      "Ġrushed": 1890,
      "Ġhero": 1891,
      "ĠMe": 1892,
      "lieve": 1893,
      "ĠSw": 1894,
      "ĠCha": 1895,
      "ĠCar": 1896,
      "ĠCall": 1897,
      "ĠCollins": 1898,
      "riage": 1899,
      "ains": 1900,
      "ĠWhaling": 1901,
      "ĠWilliam": 1902,
      "ĠLady": 1903,
      "ĠLydia": 1904,
      "Ġstick": 1905,
      "Ġhadn": 1906,
      "Ġ17": 1907,
      "une": 1908,
      "Ġshore": 1909,
      "ĠDe": 1910,
      "Ġquar": 1911,
      "ĠTh": 1912,
      "ĠTr": 1913,
      "ĠThat": 1914,
      "ĠTHE": 1915,
      "illed": 1916,
      "ĠNantucket": 1917,
      "Ġknown": 1918,
      "Ġcoming": 1919,
      "Ġcomple": 1920,
      "els": 1921,
      "antic": 1922,
      "Ġexplain": 1923,
      "ager": 1924,
      "Ġlikely": 1925,
      "ively": 1926,
      "before": 1927,
      "Ġreturned": 1928,
      "ĠĠĠĠĠĠĠĠĠĠĠĠĠĠĠĠĠĠĠĠĠĠĠĠĠĠĠĠĠĠĠĠĠĠĠĠĠĠĠĠĠĠĠĠ": 1929,
      "ĠĠĠĠĠĠĠĠĠĠĠĠĠĠĠĠĠĠĠĠĠĠĠĠĠĠĠĠĠĠĠĠĠĠĠĠĠĠĠĠĠĠĠ": 1930,
      "wered": 1931,
      "uded": 1932,
      "Ġsaying": 1933,
      "Ġusing": 1934,
      "Ġparticular": 1935,
      "Ġstrong": 1936,
      "Ġgrou": 1937,
      "Ġeye": 1938,
      "Ġenter": 1939,
      "Ġpaper": 1940,
      "ubb": 1941,
      "Ġcommand": 1942,
      "Ġdifferent": 1943,
      "Ġsometimes": 1944,
      "Ġmarry": 1945,
      "Ġnearly": 1946,
      "ffici": 1947,
      "Ġnumbers": 1948,
      "Ġhurry": 1949,
      "ictures": 1950,
      "ixed": 1951,
      "Ġtrying": 1952,
      "Ġchanged": 1953,
      "Ġpersons": 1954,
      "Ġgenerally": 1955,
      "Ġintro": 1956,
      "Ġfeelings": 1957,
      "airs": 1958,
      "Ġsurpr": 1959,
      "Ġanimal": 1960,
      "Ġturned": 1961,
      "Ġattack": 1962,
      "Ġaddress": 1963,
      "Ġfinished": 1964,
      "Ġemp": 1965,
      "Ġtalking": 1966,
      "Ġclear": 1967,
      "Ġinstant": 1968,
      "ĠAdventures": 1969,
      "Ġsimple": 1970,
      "Ġanswered": 1971,
      "position": 1972,
      "culiar": 1973,
      "ohn": 1974,
      "pital": 1975,
      "Ġspoke": 1976,
      "itude": 1977,
      "Ġremember": 1978,
      "Ġidea": 1979,
      "Ġbusiness": 1980,
      "Ġladies": 1981,
      "anguage": 1982,
      "judice": 1983,
      "Ġpuppy": 1984,
      "!=": 1985,
      "!âĢĻ": 1986,
      ",\")": 1987,
      "By": 1988,
      "Come": 1989,
      "LE": 1990,
      "Let": 1991,
      "Re": 1992,
      "[-": 1993,
      "az": 1994,
      "app": 1995,
      "ailed": 1996,
      "bour": 1997,
      "cri": 1998,
      "cast": 1999,
      "certain": 2000,
      "down": 2001,
      "duce": 2002,
      "ec": 2003,
      "eor": 2004,
      "equ": 2005,
      "fre": 2006,
      "field": 2007,
      "go": 2008,
      "ging": 2009,
      "gar": 2010,
      "him": 2011,
      "hile": 2012,
      "iable": 2013,
      "lled": 2014,
      "mid": 2015,
      "more": 2016,
      "mod": 2017,
      "mense": 2018,
      "never": 2019,
      "number": 2020,
      "oot": 2021,
      "part": 2022,
      "pie": 2023,
      "ring": 2024,
      "spe": 2025,
      "side": 2026,
      "ts": 2027,
      "ued": 2028,
      "uct": 2029,
      "under": 2030,
      "vil": 2031,
      "ww": 2032,
      "wer": 2033,
      "ware": 2034,
      "which": 2035,
      "xity": 2036,
      "zz": 2037,
      "zes": 2038,
      "}\")": 2039,
      "Ġi": 2040,
      "Ġ!=": 2041,
      "Ġ}\")": 2042,
      "Ġten": 2043,
      "Ġtest": 2044,
      "Ġtail": 2045,
      "Ġtaking": 2046,
      "Ġtired": 2047,
      "ines": 2048,
      "inct": 2049,
      "insertions": 2050,
      "Ġsk": 2051,
      "Ġsy": 2052,
      "Ġsoul": 2053,
      "Ġsize": 2054,
      "oung": 2055,
      "itle": 2056,
      "itation": 2057,
      "Ġmod": 2058,
      "Ġmone": 2059,
      "Ġmark": 2060,
      "orche": 2061,
      "Ġbat": 2062,
      "Ġbur": 2063,
      "Ġbreat": 2064,
      "Ġbright": 2065,
      "Ġtop": 2066,
      "stmt": 2067,
      "Ġinv": 2068,
      "arn": 2069,
      "arch": 2070,
      "Ġdet": 2071,
      "Ġdra": 2072,
      "Ġdire": 2073,
      "Ġplease": 2074,
      "ceed": 2075,
      "cending": 2076,
      "owly": 2077,
      "Ġnight": 2078,
      "set": 2079,
      "seem": 2080,
      "Ġlost": 2081,
      "Ġlaid": 2082,
      "asp": 2083,
      "asion": 2084,
      "asant": 2085,
      "Ġhast": 2086,
      "esides": 2087,
      "otion": 2088,
      "utting": 2089,
      "Ġhun": 2090,
      "Ġhop": 2091,
      "Ġhour": 2092,
      "etch": 2093,
      "Ġeas": 2094,
      "ically": 2095,
      "imney": 2096,
      "Ġthousand": 2097,
      "vere": 2098,
      "alt": 2099,
      "alth": 2100,
      "alcul": 2101,
      "They": 2102,
      "ĠAhab": 2103,
      "enth": 2104,
      "ldom": 2105,
      "irc": 2106,
      "Ġref": 2107,
      "Ġrestr": 2108,
      "Ġreceiv": 2109,
      "aying": 2110,
      "Ġrate": 2111,
      "Ġseven": 2112,
      "Ġself": 2113,
      "Ġseveral": 2114,
      "Ġascending": 2115,
      "Ġforg": 2116,
      "lies": 2117,
      "âĢĶâĢĿ": 2118,
      "teen": 2119,
      "ĠSo": 2120,
      "ĠSp": 2121,
      "ĠSome": 2122,
      "ĠSub": 2123,
      "ĠSherlock": 2124,
      "ortun": 2125,
      "ĠCalcul": 2126,
      "rig": 2127,
      "Ġattempt": 2128,
      "Ġang": 2129,
      "ills": 2130,
      "ĠBaker": 2131,
      "quently": 2132,
      "quaint": 2133,
      "ustom": 2134,
      "ĠWith": 2135,
      "ĠWick": 2136,
      "ĠLiz": 2137,
      "ĠLory": 2138,
      "Ġstay": 2139,
      "Ġstri": 2140,
      "Ġstart": 2141,
      "Ġstud": 2142,
      "olog": 2143,
      "olute": 2144,
      "Ġ15": 2145,
      "ship": 2146,
      "think": 2147,
      "unsorted": 2148,
      "together": 2149,
      "ctions": 2150,
      "Ġkid": 2151,
      "Ġsole": 2152,
      "Ġsho": 2153,
      "Ġshout": 2154,
      "then": 2155,
      "Ġvar": 2156,
      "Ġval": 2157,
      "Ġvast": 2158,
      "Ġview": 2159,
      "Ġqueer": 2160,
      "ĠThis": 2161,
      "Ġnew": 2162,
      "Ġneigh": 2163,
      "iling": 2164,
      "ility": 2165,
      "ĠNort": 2166,
      "Ġalso": 2167,
      "ards": 2168,
      "Ġ20": 2169,
      "Ġ22": 2170,
      "Ġ25": 2171,
      "Ġ26": 2172,
      "Ġ27": 2173,
      "Ġexpect": 2174,
      "Ġexact": 2175,
      "Ġexcept": 2176,
      "Ġabs": 2177,
      "ĠGeor": 2178,
      "Ġmanual": 2179,
      "Ġfear": 2180,
      "Ġjud": 2181,
      "fection": 2182,
      "fended": 2183,
      "Ġago": 2184,
      "peri": 2185,
      "plexity": 2186,
      "Ġcapital": 2187,
      "been": 2188,
      "Here": 2189,
      "acy": 2190,
      "Ġ[-": 2191,
      "Ġunsorted": 2192,
      "(\",\")": 2193,
      "__}": 2194,
      "ngth": 2195,
      "Ġeng": 2196,
      "extend": 2197,
      "Ġcurious": 2198,
      "rench": 2199,
      "Ġchimney": 2200,
      "ĠBenchmark": 2201,
      "tainer": 2202,
      "ĠJohn": 2203,
      "append": 2204,
      "Ġacross": 2205,
      "Ġacquaint": 2206,
      "onsense": 2207,
      "Ġblue": 2208,
      "Ġbrought": 2209,
      "stration": 2210,
      "ĠĠĠĠĠĠĠĠĠĠĠĠĠĠĠĠĠĠĠĠĠĠĠĠĠĠ": 2211,
      "Ġdisc": 2212,
      "Ġintegers": 2213,
      "atson": 2214,
      "Ġsubject": 2215,
      "Ġobject": 2216,
      "Ġyear": 2217,
      "soever": 2218,
      "Ġrunning": 2219,
      "Ġcomma": 2220,
      "Ġswam": 2221,
      "Ġswallow": 2222,
      "Ġitems": 2223,
      "container": 2224,
      "Ġwaited": 2225,
      "ibly": 2226,
      "Ġremain": 2227,
      "Ġdays": 2228,
      "Ġpassen": 2229,
      "Ġearth": 2230,
      "Ġdoctests": 2231,
      "Ġgrowing": 2232,
      "Ġappears": 2233,
      "myself": 2234,
      "Ġdoesn": 2235,
      "([-": 2236,
      "([])": 2237,
      "Ġsetup": 2238,
      "Ġfunctions": 2239,
      "Ġnatural": 2240,
      "Ġhappened": 2241,
      "Ġinteresting": 2242,
      "ĠComplexity": 2243,
      "Ġbenchmarked": 2244,
      "Ġelements": 2245,
      "Ġgirl": 2246,
      "ĠPride": 2247,
      "ĠAdventure": 2248,
      "Ġhorse": 2249,
      "planetary": 2250,
      "ancing": 2251,
      "Ġpossess": 2252,
      "allest": 2253,
      "Ġrandrange": 2254,
      "ĠPrejudice": 2255,
      "ĠVoyage": 2256,
      "Ġwaiting": 2257,
      "Ġmutable": 2258,
      "Ġlaugh": 2259,
      "Ġsuddenly": 2260,
      "Ġchildren": 2261,
      "Ġperfectly": 2262,
      "split": 2263,
      "Ġgentleman": 2264,
      "ĠAnn": 2265,
      "Ġcomparable": 2266,
      "Ġgolden": 2267,
      "Ġprobably": 2268,
      "ĠSwift": 2269,
      "ĠCallable": 2270,
      "agerly": 2271,
      "Ġgroups": 2272,
      "Ġemplo": 2273,
      "Ġtesting": 2274,
      "Ġmoney": 2275,
      "orchestration": 2276,
      "ĠCalculate": 2277,
      "ĠWickham": 2278,
      "Ġneighbour": 2279,
      "ĠGeorge": 2280,
      "(\",\")]": 2281,
      "AR": 2282,
      "CER": 2283,
      "Cont": 2284,
      "Do": 2285,
      "EE": 2286,
      "Ed": 2287,
      "GE": 2288,
      "Holmes": 2289,
      "Is": 2290,
      "ND": 2291,
      "St": 2292,
      "Sure": 2293,
      "Sub": 2294,
      "TEN": 2295,
      "Title": 2296,
      "UR": 2297,
      "Which": 2298,
      "aim": 2299,
      "aven": 2300,
      "ault": 2301,
      "bed": 2302,
      "bow": 2303,
      "bly": 2304,
      "co": 2305,
      "cent": 2306,
      "chan": 2307,
      "cus": 2308,
      "cip": 2309,
      "clock": 2310,
      "dle": 2311,
      "dis": 2312,
      "dif": 2313,
      "dison": 2314,
      "eenth": 2315,
      "fan": 2316,
      "face": 2317,
      "hood": 2318,
      "hip": 2319,
      "iver": 2320,
      "line": 2321,
      "llent": 2322,
      "ma": 2323,
      "mon": 2324,
      "ming": 2325,
      "mar": 2326,
      "much": 2327,
      "nly": 2328,
      "pers": 2329,
      "rot": 2330,
      "sp": 2331,
      "sha": 2332,
      "sud": 2333,
      "said": 2334,
      "ten": 2335,
      "ton": 2336,
      "ually": 2337,
      "uzz": 2338,
      "vo": 2339,
      "vous": 2340,
      "xiously": 2341,
      "yet": 2342,
      "yal": 2343,
      "your": 2344,
      "Ġver": 2345,
      "hel": 2346,
      "iny": 2347,
      "Ġsight": 2348,
      "Ġsilence": 2349,
      "Ġoh": 2350,
      "Ġopp": 2351,
      "rel": 2352,
      "reen": 2353,
      "reme": 2354,
      "ergy": 2355,
      "had": 2356,
      "isf": 2357,
      "ising": 2358,
      "ĠĠĠĠĠĠĠĠĠĠĠĠ": 2359,
      "ĠĠĠĠĠĠĠĠĠĠĠĠĠĠĠ": 2360,
      "ening": 2361,
      "enes": 2362,
      "ones": 2363,
      "onic": 2364,
      "Ġmast": 2365,
      "Ġmaster": 2366,
      "orm": 2367,
      "orrow": 2368,
      "ories": 2369,
      "Ġbre": 2370,
      "Ġball": 2371,
      "Ġcent": 2372,
      "Ġcli": 2373,
      "Ġcost": 2374,
      "Ġcig": 2375,
      "Ġcopy": 2376,
      "Ġoffended": 2377,
      "Ġflo": 2378,
      "Ġfig": 2379,
      "Ġfool": 2380,
      "Ġfoot": 2381,
      "Ġtowards": 2382,
      "âĢľ_": 2383,
      "Ġdate": 2384,
      "Ġdone": 2385,
      "Ġdare": 2386,
      "ative": 2387,
      "Ġpast": 2388,
      "Ġpract": 2389,
      "cellent": 2390,
      "owers": 2391,
      "ĠIm": 2392,
      "Ġnarrow": 2393,
      "Ġlit": 2394,
      "Ġloo": 2395,
      "Ġlight": 2396,
      "Ġlying": 2397,
      "ĠĠĠĠĠĠĠĠĠĠĠĠĠĠĠĠĠĠĠĠĠĠĠĠĠĠĠ": 2398,
      "Ġgave": 2399,
      "Ġbelieve": 2400,
      "Ġeagerly": 2401,
      "ictions": 2402,
      "icense": 2403,
      "always": 2404,
      "ctor": 2405,
      "urs": 2406,
      "urse": 2407,
      "urope": 2408,
      "Ġred": 2409,
      "Ġreal": 2410,
      "Ġreac": 2411,
      "Ġready": 2412,
      "Ġrabbit": 2413,
      "Ġsend": 2414,
      "Ġseldom": 2415,
      "ister": 2416,
      "Ġformer": 2417,
      "Ġnoticed": 2418,
      "Ġwhy": 2419,
      "Ġwhis": 2420,
      "ĠMer": 2421,
      "like": 2422,
      "tered": 2423,
      "ĠThen": 2424,
      "ĠSc": 2425,
      "ĠSe": 2426,
      "Ġlearn": 2427,
      "Ġlength": 2428,
      "ĠCO": 2429,
      "ĠCon": 2430,
      "ĠCather": 2431,
      "Ġattend": 2432,
      "key": 2433,
      "quires": 2434,
      "quiet": 2435,
      "ĠWatson": 2436,
      "ĠLuc": 2437,
      "Ġstop": 2438,
      "Ġstory": 2439,
      "HALE": 2440,
      "pered": 2441,
      "ĠHer": 2442,
      "Ġdead": 2443,
      "Ġdecl": 2444,
      "ances": 2445,
      "should": 2446,
      "unk": 2447,
      "ĠFirst": 2448,
      "itty": 2449,
      "Ġking": 2450,
      "Ġkilled": 2451,
      "ĠPequ": 2452,
      "Ġshown": 2453,
      "ĠĠĠĠĠĠĠĠĠĠĠĠĠĠĠĠĠĠĠĠĠĠĠĠĠĠĠĠĠĠĠĠĠ": 2454,
      "ĠĠĠĠĠĠĠĠĠĠĠĠĠĠĠĠĠĠĠĠĠĠĠĠĠĠĠĠĠĠĠĠĠĠĠĠĠ": 2455,
      "they": 2456,
      "Ġves": 2457,
      "Ġquality": 2458,
      "ĠTe": 2459,
      "ĠTw": 2460,
      "Ġneed": 2461,
      "ĠNow": 2462,
      "Ġlive": 2463,
      "Ġaltogether": 2464,
      "Ġnove": 2465,
      "ĠEX": 2466,
      "Ġextend": 2467,
      "Ġconvers": 2468,
      "Ġwhose": 2469,
      "ĠGlo": 2470,
      "ĠGerman": 2471,
      "Ġimmense": 2472,
      "Ġmanner": 2473,
      "Ġjaws": 2474,
      "ledge": 2475,
      "Ġgoes": 2476,
      "Ġtwice": 2477,
      "Ġanyone": 2478,
      "pleasant": 2479,
      "Ġpossible": 2480,
      "ĠOF": 2481,
      "ĠOf": 2482,
      "Ġcaught": 2483,
      "Ġcause": 2484,
      "Ġyourself": 2485,
      "beg": 2486,
      "irely": 2487,
      "play": 2488,
      "Ġproceed": 2489,
      "Ġplan": 2490,
      "reeable": 2491,
      "Ġtrust": 2492,
      "Ġtrue": 2493,
      "Ġparts": 2494,
      "Ġsmoke": 2495,
      "ression": 2496,
      "Ġblow": 2497,
      "Ġlonger": 2498,
      "cied": 2499,
      "cial": 2500,
      "Ġbring": 2501,
      "ĠAddison": 2502,
      "struction": 2503,
      "Ġdifficult": 2504,
      "Ġentered": 2505,
      "pectat": 2506,
      "Ġcommon": 2507,
      "conf": 2508,
      "III": 2509,
      "Ġspeech": 2510,
      "Ġmarried": 2511,
      "Ġpassage": 2512,
      "Ġdescri": 2513,
      "Ġappeared": 2514,
      "Ġopened": 2515,
      "iction": 2516,
      "Ġcoat": 2517,
      "Ġchance": 2518,
      "Ġchange": 2519,
      "Ġ1894": 2520,
      "Ġhappen": 2521,
      "Ġguard": 2522,
      "Ġguess": 2523,
      "ielding": 2524,
      "Mrs": 2525,
      "ritical": 2526,
      "whatsoever": 2527,
      "Ġbeauty": 2528,
      "Ġbeautif": 2529,
      "ĠHowever": 2530,
      "ĠDoctor": 2531,
      "Ġoccasion": 2532,
      "Ġwalked": 2533,
      "Ġsecret": 2534,
      "Ġanswer": 2535,
      "Ġships": 2536,
      "Ġextreme": 2537,
      "Ġadmir": 2538,
      "Ġobserved": 2539,
      "Ġslee": 2540,
      "Ġsleep": 2541,
      "Ġwritten": 2542,
      "anced": 2543,
      "Ġhumour": 2544,
      "ĠYour": 2545,
      "Ġrush": 2546,
      "ĠWhite": 2547,
      "ĠGodfre": 2548,
      "ĠXXX": 2549,
      "vided": 2550,
      "ĠQue": 2551,
      "Ġmiddle": 2552,
      "Ġconduct": 2553,
      "Ġfalse": 2554,
      "Ġfamily": 2555,
      "Ġdaughters": 2556,
      "Ġraise": 2557,
      "Ġsailor": 2558,
      "cisely": 2559,
      "natural": 2560,
      "Ġequal": 2561,
      "ĠAllen": 2562,
      "Ġsuppose": 2563,
      "ĠBohemia": 2564,
      "Ġimmediately": 2565,
      "Ġgiven": 2566,
      "ĠMeets": 2567,
      "castle": 2568,
      "Ġmarked": 2569,
      "Ġdeterm": 2570,
      "Ġhastily": 2571,
      "ircum": 2572,
      "Ġrestrictions": 2573,
      "ĠLizzy": 2574,
      "Ġstudy": 2575,
      "Ġneighbourhood": 2576,
      "Ġopportun": 2577,
      "Ġclient": 2578,
      "ĠCatherine": 2579,
      "ĠPequod": 2580,
      "ĠGlobe": 2581,
      "ĠGodfrey": 2582,
      ",)": 2583,
      "//": 2584,
      ";âĢĿ": 2585,
      ";âĢĶ": 2586,
      "At": 2587,
      "Author": 2588,
      "BER": 2589,
      "BOOK": 2590,
      "Com": 2591,
      "Cred": 2592,
      "Collins": 2593,
      "Copy": 2594,
      "De": 2595,
      "DIC": 2596,
      "ES": 2597,
      "Er": 2598,
      "Eng": 2599,
      "IV": 2600,
      "ION": 2601,
      "JECT": 2602,
      "Language": 2603,
      "Miss": 2604,
      "Mary": 2605,
      "NU": 2606,
      "OJECT": 2607,
      "RA": 2608,
      "TAR": 2609,
      "UTEN": 2610,
      "VI": 2611,
      "Where": 2612,
      "Who": 2613,
      "Yes": 2614,
      "[_": 2615,
      "]]": 2616,
      "aper": 2617,
      "aves": 2618,
      "br": 2619,
      "bs": 2620,
      "bar": 2621,
      "band": 2622,
      "bling": 2623,
      "cer": 2624,
      "ced": 2625,
      "could": 2626,
      "cious": 2627,
      "cons": 2628,
      "cup": 2629,
      "cope": 2630,
      "critical": 2631,
      "dge": 2632,
      "dra": 2633,
      "dated": 2634,
      "ein": 2635,
      "even": 2636,
      "ection": 2637,
      "eBook": 2638,
      "found": 2639,
      "ffect": 2640,
      "grow": 2641,
      "gled": 2642,
      "gutenberg": 2643,
      "hi": 2644,
      "hum": 2645,
      "iest": 2646,
      "ius": 2647,
      "ivers": 2648,
      "jection": 2649,
      "know": 2650,
      "lot": 2651,
      "lad": 2652,
      "ms": 2653,
      "men": 2654,
      "mas": 2655,
      "met": 2656,
      "mber": 2657,
      "master": 2658,
      "mitted": 2659,
      "ns": 2660,
      "nic": 2661,
      "oly": 2662,
      "rm": 2663,
      "ris": 2664,
      "ral": 2665,
      "rab": 2666,
      "round": 2667,
      "rus": 2668,
      "su": 2669,
      "somet": 2670,
      "tr": 2671,
      "ty": 2672,
      "tar": 2673,
      "tree": 2674,
      "txt": 2675,
      "ues": 2676,
      "uge": 2677,
      "ush": 2678,
      "uil": 2679,
      "uche": 2680,
      "vis": 2681,
      "vant": 2682,
      "whe": 2683,
      "win": 2684,
      "wind": 2685,
      "wonder": 2686,
      "who": 2687,
      "ys": 2688,
      "»¿": 2689,
      "ï»¿": 2690,
      "Ġve": 2691,
      "Ġtong": 2692,
      "Ġterm": 2693,
      "Ġtext": 2694,
      "Ġtrem": 2695,
      "Ġtallest": 2696,
      "het": 2697,
      "ĠĠĠĠĊ": 2698,
      "into": 2699,
      "inction": 2700,
      "inner": 2701,
      "inued": 2702,
      "Ġsing": 2703,
      "Ġsil": 2704,
      "Ġsens": 2705,
      "Ġsides": 2706,
      "Ġschool": 2707,
      "Ġoil": 2708,
      "reg": 2709,
      "Ġwood": 2710,
      "Ġwww": 2711,
      "erpent": 2712,
      "has": 2713,
      "hand": 2714,
      "ouble": 2715,
      "ities": 2716,
      "ises": 2717,
      "isher": 2718,
      "eness": 2719,
      "only": 2720,
      "Ġmet": 2721,
      "Ġmur": 2722,
      "Ġmess": 2723,
      "Ġmice": 2724,
      "Ġmask": 2725,
      "org": 2726,
      "Ġbed": 2727,
      "Ġbound": 2728,
      "Ġburn": 2729,
      "Ġbold": 2730,
      "Ġbats": 2731,
      "Ġbirds": 2732,
      "Ġcol": 2733,
      "Ġcough": 2734,
      "Ġcold": 2735,
      "inger": 2736,
      "Ġoften": 2737,
      "Ġfif": 2738,
      "Ġfro": 2739,
      "Ġfore": 2740,
      "Ġfond": 2741,
      "Ġfine": 2742,
      "Ġfather": 2743,
      "Ġfaint": 2744,
      "Ġfield": 2745,
      "Ġfier": 2746,
      "Ġfishes": 2747,
      "Ġfixed": 2748,
      "Ġtown": 2749,
      "stein": 2750,
      "Ġind": 2751,
      "Ġinches": 2752,
      "Ġinfl": 2753,
      "arm": 2754,
      "âĢľâĢĺ": 2755,
      "Ġded": 2756,
      "Ġdrew": 2757,
      "Ġdread": 2758,
      "Ġdrink": 2759,
      "lls": 2760,
      "ank": 2761,
      "ange": 2762,
      "Ġpat": 2763,
      "Ġpub": 2764,
      "Ġpaint": 2765,
      "ĠII": 2766,
      "ĠIV": 2767,
      "ĠIII": 2768,
      "Ġnone": 2769,
      "sey": 2770,
      "Ġlim": 2771,
      "Ġlay": 2772,
      "Ġlater": 2773,
      "Ġlaws": 2774,
      "Ġlaw": 2775,
      "Ġloud": 2776,
      "Ġloung": 2777,
      "omantic": 2778,
      "Ġhealth": 2779,
      "Ġheaven": 2780,
      "ashed": 2781,
      "Ġhang": 2782,
      "ote": 2783,
      "uth": 2784,
      "Ġhistory": 2785,
      "ĠĠĠĠĠĠĠĠĠĠĠĠĠĠĠĠĠĠĠĠĠĠ": 2786,
      "Ġgiv": 2787,
      "Ġbell": 2788,
      "Ġbeast": 2789,
      "ether": 2790,
      "Ġest": 2791,
      "Ġeffect": 2792,
      "Ġyer": 2793,
      "imble": 2794,
      "Ġthir": 2795,
      "Ġthrew": 2796,
      "ĠâĢľ_": 2797,
      "ctly": 2798,
      "Ġunt": 2799,
      "irit": 2800,
      "Ġonline": 2801,
      "Ġret": 2802,
      "Ġroof": 2803,
      "Ġromantic": 2804,
      "Ġseas": 2805,
      "Ġselect": 2806,
      "oose": 2807,
      "Ġwithin": 2808,
      "ĠMor": 2809,
      "ĠMost": 2810,
      "ĠMabel": 2811,
      "âĢĶâĢľ": 2812,
      "âĢĶâĢĻ": 2813,
      "amp": 2814,
      "amed": 2815,
      "ĠShip": 2816,
      "ĠSpectat": 2817,
      "ĠSTAR": 2818,
      "Ġleave": 2819,
      "orts": 2820,
      "about": 2821,
      "ĠCome": 2822,
      "ĠCau": 2823,
      "ĠChar": 2824,
      "ĠBOOK": 2825,
      "ĠBesides": 2826,
      "que": 2827,
      "roll": 2828,
      "rocket": 2829,
      "ĠWho": 2830,
      "tern": 2831,
      "Ġsave": 2832,
      "Ġmeans": 2833,
      "ĠLat": 2834,
      "ĠLicense": 2835,
      "Ġstage": 2836,
      "Ġstairs": 2837,
      "peci": 2838,
      "venue": 2839,
      "Ġdogs": 2840,
      "Ġweek": 2841,
      "Ġupdated": 2842,
      "Ġ14": 2843,
      "Ġ19": 2844,
      "Ġord": 2845,
      "Ġdeath": 2846,
      "through": 2847,
      "ung": 2848,
      "ĠFl": 2849,
      "ĠFrench": 2850,
      "ĠFielding": 2851,
      "ulled": 2852,
      "ulgar": 2853,
      "inded": 2854,
      "Ġsovere": 2855,
      "ously": 2856,
      "ĠPart": 2857,
      "ĠPlease": 2858,
      "Ġshort": 2859,
      "Ġshri": 2860,
      "Ġshrink": 2861,
      "ĠĠĠĠĠĠĠĠĠĠĠĠĠĠĠĠĠĠĠĠĠĠĠĠĠĠĠĠĠĠĠĠĠĠ": 2862,
      "ĠĠĠĠĠĠĠĠĠĠĠĠĠĠĠĠĠĠĠĠĠĠĠĠĠĠĠĠĠĠĠĠĠĠĠĠĠĠ": 2863,
      "emo": 2864,
      "there": 2865,
      "Ġvent": 2866,
      "ĠDan": 2867,
      "ĠTell": 2868,
      "Ġneat": 2869,
      "ĠNo": 2870,
      "ĠNew": 2871,
      "Ġlie": 2872,
      "ardon": 2873,
      "Ġcomb": 2874,
      "Ġnoble": 2875,
      "Ġ21": 2876,
      "ĠEBOOK": 2877,
      "usk": 2878,
      "usband": 2879,
      "Ġexcellent": 2880,
      "Ġabove": 2881,
      "Ġconf": 2882,
      "Ġconstruction": 2883,
      "ĠGo": 2884,
      "ĠGUTEN": 2885,
      "ode": 2886,
      "Ġimag": 2887,
      "Ġprep": 2888,
      "Ġpress": 2889,
      "Ġmanage": 2890,
      "Ġwhenever": 2891,
      "pping": 2892,
      "delight": 2893,
      "Ġ(_": 2894,
      "ĠRo": 2895,
      "ĠRet": 2896,
      "ĠRand": 2897,
      "Ġjump": 2898,
      "itely": 2899,
      "Ġanywhere": 2900,
      "Ġknows": 2901,
      "Ġknowledge": 2902,
      "fee": 2903,
      "perhaps": 2904,
      "Ġposs": 2905,
      "Ġpocket": 2906,
      "bered": 2907,
      "ption": 2908,
      "ptain": 2909,
      "Ġsomewhere": 2910,
      "achel": 2911,
      "pose": 2912,
      "pocket": 2913,
      "Ġuncom": 2914,
      "Ġ***": 2915,
      "Ġcannot": 2916,
      "Ġthinking": 2917,
      "ieces": 2918,
      "Ġlock": 2919,
      "Ġ36": 2920,
      "Ġaffection": 2921,
      "Ġlisten": 2922,
      "acett": 2923,
      "Ġarri": 2924,
      "Ġaround": 2925,
      "ĠĠĠĠĠĠĠĠĠĠĠĠĠĠĠĠĠĠĠĠĠĠĠĠĠĠĠĠĠĠĠĠĠĠĠĠĠĠĠĠĠĠĠĠĠĠĠ": 2926,
      "were": 2927,
      "Ġroyal": 2928,
      "Ġshoulders": 2929,
      "Ġsays": 2930,
      "ĠStubb": 2931,
      "time": 2932,
      "Ġcho": 2933,
      "Ġdidn": 2934,
      "Ġimpati": 2935,
      "ĠJune": 2936,
      "Ġtrans": 2937,
      "Ġtrouble": 2938,
      "Ġoffic": 2939,
      "Ġ43": 2940,
      "appe": 2941,
      "._]]": 2942,
      "Ġstrange": 2943,
      "Ġblood": 2944,
      "Ġeverything": 2945,
      "alking": 2946,
      "Ġbrother": 2947,
      "attering": 2948,
      "hys": 2949,
      "Ġentirely": 2950,
      "Ġdisg": 2951,
      "Ġdisposition": 2952,
      "ĠXL": 2953,
      "Ġobli": 2954,
      "Ġglimp": 2955,
      "Ġlessons": 2956,
      "Ġpeculiar": 2957,
      "Ġheads": 2958,
      "Ġruns": 2959,
      "Ġconsist": 2960,
      "Ġimportant": 2961,
      "Ġswift": 2962,
      "Ġevening": 2963,
      "ales": 2964,
      "cont": 2965,
      "Ġgenius": 2966,
      "ibility": 2967,
      "ĠKitty": 2968,
      "Ġmarriage": 2969,
      "Ġclass": 2970,
      "Ġindex": 2971,
      "Ġputting": 2972,
      "Ġremove": 2973,
      "Ġvoices": 2974,
      "Ġscene": 2975,
      "Ġearly": 2976,
      "rightened": 2977,
      "Ġwomen": 2978,
      "Ġdouble": 2979,
      "Ġminute": 2980,
      "Ġappend": 2981,
      "Ġappear": 2982,
      "avy": 2983,
      "Ġfancied": 2984,
      "otten": 2985,
      "version": 2986,
      "Ġvisitor": 2987,
      "Ġkeep": 2988,
      "Ġboat": 2989,
      "Ġboats": 2990,
      "Ġcompet": 2991,
      "hole": 2992,
      "Ġremarkable": 2993,
      "chair": 2994,
      "Ġanimals": 2995,
      "Ġinterested": 2996,
      "Ġturning": 2997,
      "Ġsatisf": 2998,
      "result": 2999,
      "Ġadded": 3000,
      "Ġlandau": 3001,
      "Ġfalling": 3002,
      "Ġcontinued": 3003,
      "Ġarmchair": 3004,
      "Ġhandsome": 3005,
      "***": 3006,
      "Ġslowly": 3007,
      "Ġsimp": 3008,
      "Ġoccur": 3009,
      "Ġbroken": 3010,
      "Ġcheck": 3011,
      "Ġassure": 3012,
      "Ġmeaning": 3013,
      "Ġextract": 3014,
      "ferred": 3015,
      "Ġdrove": 3016,
      "Ġdropped": 3017,
      "Ġdelightful": 3018,
      "Ġfellow": 3019,
      "Ġpersonal": 3020,
      "Ġcharacterist": 3021,
      "smen": 3022,
      "Ġeighteenth": 3023,
      "Ġrandom": 3024,
      "ĠPROJECT": 3025,
      "Ġadvant": 3026,
      "door": 3027,
      "ĠQu": 3028,
      "Ġsounded": 3029,
      "Ġcrowd": 3030,
      "Ġfresh": 3031,
      "Ġfrequently": 3032,
      "Ġfallen": 3033,
      "Ġfami": 3034,
      "Ġfacts": 3035,
      "Ġdaughter": 3036,
      "Ġrecently": 3037,
      "ĠChurch": 3038,
      "fortable": 3039,
      "Ġespeci": 3040,
      "arrative": 3041,
      "Ġmerely": 3042,
      "Ġdelicate": 3043,
      "formation": 3044,
      "Ġswimming": 3045,
      "greater": 3046,
      "rug": 3047,
      "Ġmistake": 3048,
      "Ġmagic": 3049,
      "Ġincluded": 3050,
      "ĠIndeed": 3051,
      "Ġnerves": 3052,
      "Ġhabits": 3053,
      "Ġbelong": 3054,
      "Ġcomplete": 3055,
      "fficient": 3056,
      "Ġintroduce": 3057,
      "Release": 3058,
      "Ġbreath": 3059,
      "Ġreceived": 3060,
      "Ġforgotten": 3061,
      "ustomed": 3062,
      "Ġstarted": 3063,
      "ology": 3064,
      "Ġsolem": 3065,
      "Ġshouted": 3066,
      "ĠNorton": 3067,
      "Ġ202": 3068,
      "Ġexpected": 3069,
      "Ġexactly": 3070,
      "Ġengaged": 3071,
      "Ġacquaintance": 3072,
      "Ġlaughing": 3073,
      "CERPT": 3074,
      "ergyman": 3075,
      "Ġreached": 3076,
      "ĠLucas": 3077,
      "Ġvessel": 3078,
      "ĠEXCERPT": 3079,
      "Ġconversation": 3080,
      "began": 3081,
      "Ġblows": 3082,
      "Ġsleepy": 3083,
      "ĠQueen": 3084,
      "BERG": 3085,
      "Credits": 3086,
      "Copyright": 3087,
      "NUEE": 3088,
      "uchess": 3089,
      "Ġtongue": 3090,
      "Ġterms": 3091,
      "erpentine": 3092,
      "etherfield": 3093,
      "Ġuntil": 3094,
      "ĠSTART": 3095,
      "ĠCaucus": 3096,
      "Ġsovereign": 3097,
      "ĠGUTENBERG": 3098,
      "Ġimagine": 3099,
      "acetti": 3100,
      "Ġespecially": 3101,
      "!âĢĶ": 3102,
      "!_âĢĿ": 3103,
      "')": 3104,
      "',": 3105,
      "('": 3106,
      "(*": 3107,
      ")]": 3108,
      ",}": 3109,
      ".âĢĶ": 3110,
      ".\")": 3111,
      "30": 3112,
      "90": 3113,
      ":.": 3114,
      ":<": 3115,
      ":])": 3116,
      ":,}": 3117,
      "=\",": 3118,
      "?_âĢĿ": 3119,
      "Ad": 3120,
      "An": 3121,
      "Ay": 3122,
      "After": 3123,
      "Ben": 3124,
      "Bill": 3125,
      "Down": 3126,
      "Dinah": 3127,
      "EJ": 3128,
      "Ho": 3129,
      "IS": 3130,
      "IT": 3131,
      "Ib": 3132,
      "Im": 3133,
      "IDE": 3134,
      "Jane": 3135,
      "LO": 3136,
      "Lib": 3137,
      "LEN": 3138,
      "MO": 3139,
      "Mouse": 3140,
      "On": 3141,
      "One": 3142,
      "Pre": 3143,
      "Qu": 3144,
      "RIN": 3145,
      "Sp": 3146,
      "Sir": 3147,
      "Such": 3148,
      "Supp": 3149,
      "TRA": 3150,
      "US": 3151,
      "UDIC": 3152,
      "Very": 3153,
      "With": 3154,
      "Will": 3155,
      "Whale": 3156,
      "While": 3157,
      "[:": 3158,
      "ais": 3159,
      "ape": 3160,
      "away": 3161,
      "brow": 3162,
      "bish": 3163,
      "bled": 3164,
      "bble": 3165,
      "bster": 3166,
      "birds": 3167,
      "come": 3168,
      "cies": 3169,
      "called": 3170,
      "customed": 3171,
      "dd": 3172,
      "don": 3173,
      "dist": 3174,
      "del": 3175,
      "duc": 3176,
      "dressed": 3177,
      "ef": 3178,
      "eg": 3179,
      "fut": 3180,
      "gin": 3181,
      "ges": 3182,
      "ghed": 3183,
      "good": 3184,
      "gentle": 3185,
      "gham": 3186,
      "glect": 3187,
      "hot": 3188,
      "hore": 3189,
      "husband": 3190,
      "ipe": 3191,
      "ians": 3192,
      "ios": 3193,
      "jo": 3194,
      "jured": 3195,
      "kn": 3196,
      "kind": 3197,
      "kitten": 3198,
      "lt": 3199,
      "lves": 3200,
      "lished": 3201,
      "might": 3202,
      "merge": 3203,
      "mund": 3204,
      "mured": 3205,
      "mma": 3206,
      "morrow": 3207,
      "minded": 3208,
      "nest": 3209,
      "ngest": 3210,
      "nurse": 3211,
      "oby": 3212,
      "ped": 3213,
      "pat": 3214,
      "pher": 3215,
      "pri": 3216,
      "phy": 3217,
      "pivot": 3218,
      "pres": 3219,
      "paper": 3220,
      "ror": 3221,
      "rist": 3222,
      "rand": 3223,
      "rant": 3224,
      "rary": 3225,
      "runk": 3226,
      "sy": 3227,
      "son": 3228,
      "sal": 3229,
      "sur": 3230,
      "same": 3231,
      "sitting": 3232,
      "tling": 3233,
      "taste": 3234,
      "ug": 3235,
      "uence": 3236,
      "uff": 3237,
      "vation": 3238,
      "vate": 3239,
      "vice": 3240,
      "viv": 3241,
      "visit": 3242,
      "wing": 3243,
      "whale": 3244,
      "while": 3245,
      "ynic": 3246,
      "Ġ'": 3247,
      "Ġ>": 3248,
      "Ġ]": 3249,
      "Ġed": 3250,
      "Ġut": 3251,
      "ĠâĢĻ": 3252,
      "Ġet": 3253,
      "Ġid": 3254,
      "Ġir": 3255,
      "Ġ40": 3256,
      "Ġign": 3257,
      "Ġ//": 3258,
      "Ġversion": 3259,
      "Ġtre": 3260,
      "Ġter": 3261,
      "Ġtou": 3262,
      "Ġtra": 3263,
      "Ġtem": 3264,
      "Ġtie": 3265,
      "Ġtaste": 3266,
      "Ġtiny": 3267,
      "Ġast": 3268,
      "Ġage": 3269,
      "Ġaware": 3270,
      "ining": 3271,
      "inet": 3272,
      "inal": 3273,
      "inci": 3274,
      "Ġsn": 3275,
      "Ġsit": 3276,
      "Ġsand": 3277,
      "Ġsword": 3278,
      "Ġshan": 3279,
      "Ġslight": 3280,
      "Ġsitu": 3281,
      "Ġsalt": 3282,
      "Ġobe": 3283,
      "Ġopt": 3284,
      "reed": 3285,
      "reason": 3286,
      "Ġwit": 3287,
      "Ġwet": 3288,
      "Ġwound": 3289,
      "Ġwrit": 3290,
      "ern": 3291,
      "ering": 3292,
      "erget": 3293,
      "hael": 3294,
      "oured": 3295,
      "ougham": 3296,
      "itions": 3297,
      "ley": 3298,
      "ĠĠĠĠĠĠĠĠĠĠ": 3299,
      "enry": 3300,
      "ency": 3301,
      "onac": 3302,
      "onah": 3303,
      "Ġmis": 3304,
      "Ġmain": 3305,
      "Ġmak": 3306,
      "Ġmiss": 3307,
      "Ġmaid": 3308,
      "Ġmild": 3309,
      "Ġmention": 3310,
      "Ġmakes": 3311,
      "Ġmotion": 3312,
      "orn": 3313,
      "orous": 3314,
      "orus": 3315,
      "Ġbar": 3316,
      "Ġbal": 3317,
      "Ġbri": 3318,
      "Ġbul": 3319,
      "Ġbark": 3320,
      "Ġbare": 3321,
      "Ġboy": 3322,
      "Ġbrown": 3323,
      "Ġbinary": 3324,
      "Ġbones": 3325,
      "Ġcre": 3326,
      "Ġcut": 3327,
      "Ġcand": 3328,
      "Ġcra": 3329,
      "Ġcart": 3330,
      "Ġcake": 3331,
      "Ġcof": 3332,
      "Ġcrown": 3333,
      "Ġcouch": 3334,
      "Ġcakes": 3335,
      "Ġcircum": 3336,
      "Ġcynic": 3337,
      "ingly": 3338,
      "Ġfly": 3339,
      "Ġfem": 3340,
      "Ġfish": 3341,
      "Ġfree": 3342,
      "Ġfull": 3343,
      "Ġfib": 3344,
      "Ġfift": 3345,
      "Ġfash": 3346,
      "Ġfailed": 3347,
      "Ġfetch": 3348,
      "Ġfrightened": 3349,
      "Ġtogether": 3350,
      "stro": 3351,
      "sters": 3352,
      "stone": 3353,
      "story": 3354,
      "street": 3355,
      "Ġinve": 3356,
      "Ġinqu": 3357,
      "arse": 3358,
      "arge": 3359,
      "Ġdressed": 3360,
      "Ġdream": 3361,
      "Ġdinner": 3362,
      "lling": 3363,
      "anion": 3364,
      "anch": 3365,
      "anish": 3366,
      "anity": 3367,
      "Ġpet": 3368,
      "Ġpay": 3369,
      "Ġpain": 3370,
      "Ġpol": 3371,
      "Ġpun": 3372,
      "Ġpop": 3373,
      "Ġpac": 3374,
      "Ġpap": 3375,
      "Ġpict": 3376,
      "Ġpaced": 3377,
      "Ġpati": 3378,
      "Ġpounds": 3379,
      "Ġpains": 3380,
      "Ġpictures": 3381,
      "Ġpowers": 3382,
      "Ġpulled": 3383,
      "Ġpardon": 3384,
      "Ġpattering": 3385,
      "ceal": 3386,
      "ĠIllustration": 3387,
      "Ġnor": 3388,
      "Ġnine": 3389,
      "Ġnorth": 3390,
      "Ġnonsense": 3391,
      "Ġnieces": 3392,
      "sec": 3393,
      "sem": 3394,
      "Ġlam": 3395,
      "Ġline": 3396,
      "Ġlatter": 3397,
      "Ġlately": 3398,
      "Ġlanguage": 3399,
      "omen": 3400,
      "omas": 3401,
      "omly": 3402,
      "Ġheavy": 3403,
      "asing": 3404,
      "ased": 3405,
      "asses": 3406,
      "Ġhat": 3407,
      "esar": 3408,
      "othes": 3409,
      "utes": 3410,
      "Ġho": 3411,
      "Ġhy": 3412,
      "Ġhot": 3413,
      "Ġhill": 3414,
      "Ġhook": 3415,
      "Ġhuge": 3416,
      "ĠĠĠĠĠĠĠĠĠĠĠĠĠĠĠĠĠĠĠĠĠĠĠ": 3417,
      "Ġgall": 3418,
      "Ġgra": 3419,
      "Ġgate": 3420,
      "Ġgrave": 3421,
      "Ġbear": 3422,
      "ety": 3423,
      "ette": 3424,
      "Ġelo": 3425,
      "Ġemer": 3426,
      "Ġeffici": 3427,
      "ican": 3428,
      "imum": 3429,
      "imized": 3430,
      "immed": 3431,
      "Ġthick": 3432,
      "Ġthump": 3433,
      "Ġthimble": 3434,
      "idnight": 3435,
      "ĠâĢľâĢĶ": 3436,
      "ĠâĢľâĢĺ": 3437,
      "alue": 3438,
      "vert": 3439,
      "ĠAh": 3440,
      "ĠAND": 3441,
      "Ġund": 3442,
      "ird": 3443,
      "iry": 3444,
      "irgin": 3445,
      "Ġrel": 3446,
      "Ġrepe": 3447,
      "Ġrepro": 3448,
      "Ġrequires": 3449,
      "Ġring": 3450,
      "Ġrat": 3451,
      "Ġrich": 3452,
      "Ġrace": 3453,
      "Ġrode": 3454,
      "Ġsep": 3455,
      "ads": 3456,
      "ades": 3457,
      "chie": 3458,
      "istle": 3459,
      "Ġforward": 3460,
      "Ġnotice": 3461,
      "ĠME": 3462,
      "ĠMy": 3463,
      "ĠMay": 3464,
      "ĠMad": 3465,
      "ĠMerge": 3466,
      "ĠMoby": 3467,
      "ĠMidnight": 3468,
      "live": 3469,
      "ifying": 3470,
      "amm": 3471,
      "ament": 3472,
      "ĠSm": 3473,
      "ĠSir": 3474,
      "ĠSpe": 3475,
      "ĠSto": 3476,
      "ĠSchool": 3477,
      "ĠSECT": 3478,
      "ĠSorts": 3479,
      "ĠSerpentine": 3480,
      "Ġlegs": 3481,
      "Ġleaves": 3482,
      "abc": 3483,
      "abin": 3484,
      "ĠCet": 3485,
      "ĠCount": 3486,
      "ĠCabin": 3487,
      "ria": 3488,
      "rily": 3489,
      "ribut": 3490,
      "Ġannot": 3491,
      "Ġanxiously": 3492,
      "ĠBl": 3493,
      "ĠBase": 3494,
      "ĠBos": 3495,
      "ander": 3496,
      "anded": 3497,
      "andal": 3498,
      "quite": 3499,
      "roc": 3500,
      "rove": 3501,
      "order": 3502,
      "ordinary": 3503,
      "usted": 3504,
      "ĠWonder": 3505,
      "ĠWhere": 3506,
      "ĠWhich": 3507,
      "ĠWHALE": 3508,
      "Ġsav": 3509,
      "Ġstro": 3510,
      "Ġstra": 3511,
      "Ġstation": 3512,
      "Ġstret": 3513,
      "Ġstmt": 3514,
      "Ġstream": 3515,
      "pelled": 3516,
      "Ġdoz": 3517,
      "Ġdoing": 3518,
      "Ġweap": 3519,
      "Ġupper": 3520,
      "ĠHistory": 3521,
      "ĠHenry": 3522,
      "Ġdef": 3523,
      "Ġdeg": 3524,
      "Ġdeli": 3525,
      "Ġdevil": 3526,
      "Ġdestro": 3527,
      "short": 3528,
      "shire": 3529,
      "ores": 3530,
      "thur": 3531,
      "those": 3532,
      "unt": 3533,
      "unate": 3534,
      "Ġallow": 3535,
      "Ġkill": 3536,
      "ĠPar": 3537,
      "ĠPra": 3538,
      "ĠPac": 3539,
      "rast": 3540,
      "raordinary": 3541,
      "Ġshot": 3542,
      "Ġshut": 3543,
      "Ġshock": 3544,
      "Ġshutting": 3545,
      "ĠĠĠĠĠĠĠĠĠĠĠĠĠĠĠĠĠĠĠĠĠĠĠĠĠĠĠĠĠĠĠĠĠĠĠ": 3546,
      "ĠĠĠĠĠĠĠĠĠĠĠĠĠĠĠĠĠĠĠĠĠĠĠĠĠĠĠĠĠĠĠĠĠĠĠĠĠĠĠ": 3547,
      "ĠĠĠĠĠĠĠĠĠĠĠĠĠĠĠĠĠĠĠĠĠĠĠĠĠĠĠĠĠĠĠĠĠĠĠĠĠĠĠĠĠĠĠĠĠĠĠĠĠĠĠĠĠĠĠĠĠĠĠĠ": 3548,
      "Ġmyster": 3549,
      "emple": 3550,
      "Ġsuit": 3551,
      "Ġsuff": 3552,
      "Ġsufficient": 3553,
      "these": 3554,
      "redit": 3555,
      "Ġvi": 3556,
      "Ġvulgar": 3557,
      "ĠDay": 3558,
      "ĠDick": 3559,
      "ĠDiction": 3560,
      "ĠDuchess": 3561,
      "Ġquant": 3562,
      "Ġquiet": 3563,
      "ational": 3564,
      "ĠTime": 3565,
      "ĠTemple": 3566,
      "Ġneck": 3567,
      "Ġneither": 3568,
      "Ġnecess": 3569,
      "open": 3570,
      "opper": 3571,
      "umm": 3572,
      "ument": 3573,
      "Ġoutside": 3574,
      "ĠNor": 3575,
      "ĠNight": 3576,
      "ĠNone": 3577,
      "ĠNorth": 3578,
      "ĠNetherfield": 3579,
      "Ġliked": 3580,
      "urns": 3581,
      "Ġknot": 3582,
      "Ġalas": 3583,
      "Ġalong": 3584,
      "Ġalone": 3585,
      "Ġalof": 3586,
      "Ġaloud": 3587,
      "Ġaltar": 3588,
      "elve": 3589,
      "Ġ24": 3590,
      "Ġ28": 3591,
      "Ġ200": 3592,
      "ĠEag": 3593,
      "ĠEurope": 3594,
      "ĠEmma": 3595,
      "ĠâĢĶâĢľ_": 3596,
      "ested": 3597,
      "using": 3598,
      "usion": 3599,
      "Ġexperi": 3600,
      "Ġable": 3601,
      "Ġconcl": 3602,
      "Ġcontempt": 3603,
      "Ġconceal": 3604,
      "Ġconvert": 3605,
      "Ġpretend": 3606,
      "Ġprett": 3607,
      "icking": 3608,
      "Ġtherefore": 3609,
      "Ġmann": 3610,
      "Ġmanaged": 3611,
      "Ġwhatever": 3612,
      "ague": 3613,
      "Ġ(âĢľ": 3614,
      "ĠRec": 3615,
      "Ġjo": 3616,
      "Ġtwelve": 3617,
      "Ġknowing": 3618,
      "Ġagent": 3619,
      "Ġagreeable": 3620,
      "Ġthemselves": 3621,
      "ĠOne": 3622,
      "ĠOcean": 3623,
      "Ġcaused": 3624,
      "Ġcaesar": 3625,
      "being": 3626,
      "bell": 3627,
      "igging": 3628,
      "Ġwouldn": 3629,
      "ives": 3630,
      "Ġsomebody": 3631,
      "Ġsomehow": 3632,
      "acult": 3633,
      "poison": 3634,
      "Ġ[*": 3635,
      "Ġunite": 3636,
      "Ġunless": 3637,
      "Ġunpleasant": 3638,
      "Ġways": 3639,
      "Ġthinks": 3640,
      "__:<": 3641,
      "Ġenerget": 3642,
      "Ġlog": 3643,
      "Ġlose": 3644,
      "Ġloved": 3645,
      "plic": 3646,
      "Ġ31": 3647,
      "Ġ32": 3648,
      "Ġ33": 3649,
      "Ġ37": 3650,
      "Ġafford": 3651,
      "Ġshad": 3652,
      "Ġcollections": 3653,
      "Ġlists": 3654,
      "Ġarch": 3655,
      "Ġsorting": 3656,
      "Ġsortvis": 3657,
      "ĠĠĠĠĠĠĠĠĠĠĠĠĠĠĠĠĠĠĠĠĠĠĠĠĠĠĠĠĠĠĠĠĠĠĠĠĠĠĠĠĠ": 3658,
      "Ġadvent": 3659,
      "Ġadjust": 3660,
      "ĠLeft": 3661,
      "except": 3662,
      "Ġcurios": 3663,
      "Ġresol": 3664,
      "uddenly": 3665,
      "ĠVI": 3666,
      "ĠValue": 3667,
      "ĠVirgin": 3668,
      "Ġproble": 3669,
      "Ġworse": 3670,
      "ĠStore": 3671,
      "ĠStory": 3672,
      "Ġprevent": 3673,
      "Ġplaced": 3674,
      "Ġprot": 3675,
      "Ġpride": 3676,
      "Ġprimes": 3677,
      "Ġseconds": 3678,
      "ĠNothing": 3679,
      "ountain": 3680,
      "ountains": 3681,
      "Ġchorus": 3682,
      "ĠHere": 3683,
      "pute": 3684,
      "Ġimpression": 3685,
      "olland": 3686,
      "Ġtruth": 3687,
      "Ġused": 3688,
      "Ġ42": 3689,
      "Ġ44": 3690,
      "Ġ45": 3691,
      "Ġ47": 3692,
      "aphys": 3693,
      "Ġchair": 3694,
      "Ġaccom": 3695,
      "Ġaccept": 3696,
      "ogue": 3697,
      "Ġminimum": 3698,
      "Ġdistances": 3699,
      "Ġblind": 3700,
      "racter": 3701,
      "Ġbrougham": 3702,
      "strous": 3703,
      "strings": 3704,
      "ĠĠĠĠĠĠĠĠĠĠĠĠĠĠĠĠĠĠĠĠĠĠĠĠĠĠĠĠĠĠĠ": 3705,
      "ĠĠĠĠĠĠĠĠĠĠĠĠĠĠĠĠĠĠĠĠĠĠĠĠĠĠĠĠĠ": 3706,
      "Ġground": 3707,
      "Ġgrasp": 3708,
      "Ġquicksort": 3709,
      "cheme": 3710,
      "comb": 3711,
      "new": 3712,
      "ucky": 3713,
      "Ġentertain": 3714,
      "Ġdisplay": 3715,
      "Ġpale": 3716,
      "Ġpaid": 3717,
      "Ġafterno": 3718,
      "Ġafterwards": 3719,
      "ĠXII": 3720,
      "lesser": 3721,
      "Ġharpo": 3722,
      "Ġsubtle": 3723,
      "nothing": 3724,
      "Ġsport": 3725,
      "Ġspread": 3726,
      "Ġglad": 3727,
      "Ġlesson": 3728,
      "soon": 3729,
      "Ġfunc": 3730,
      "Ġfunny": 3731,
      "Ġpeep": 3732,
      "Ġpebble": 3733,
      "Ġvoy": 3734,
      "Ġcommas": 3735,
      "Ġconsult": 3736,
      "Ġimportance": 3737,
      "]),": 3738,
      "Ġourselves": 3739,
      "convers": 3740,
      "ends": 3741,
      "phs": 3742,
      "ibs": 3743,
      "Ġspeaking": 3744,
      "Ġclim": 3745,
      "Ġclergyman": 3746,
      "Ġelbow": 3747,
      "claim": 3748,
      "Ġpassion": 3749,
      "Ġnumerous": 3750,
      "Ġearnest": 3751,
      "Ġdesire": 3752,
      "avour": 3753,
      "mean": 3754,
      "Ġfancy": 3755,
      "Ġhurt": 3756,
      "ography": 3757,
      "However": 3758,
      "lands": 3759,
      "Ġkeen": 3760,
      "Ġkept": 3761,
      "lescope": 3762,
      "Ġmatters": 3763,
      "Ġbox": 3764,
      "Ġcoast": 3765,
      "Ġcoach": 3766,
      "Ġcomprom": 3767,
      "Ġcompare": 3768,
      "Ġcompanion": 3769,
      "Ġlovely": 3770,
      "Ġsmaller": 3771,
      "Inval": 3772,
      "iature": 3773,
      "provided": 3774,
      "Ġ182": 3775,
      "Ġfeeling": 3776,
      "character": 3777,
      "rets": 3778,
      "retion": 3779,
      "Ġhappens": 3780,
      "Ġguine": 3781,
      "testmod": 3782,
      "Ġletter": 3783,
      "Ġletters": 3784,
      "Ġdoubtless": 3785,
      "without": 3786,
      "resently": 3787,
      "ĠCompute": 3788,
      "Ġattract": 3789,
      "Ġattention": 3790,
      "ĠĠĠĠĠĠĠĠĠĠĠĠĠĠĠĠĠĠĠĠĠĠĠĠĠĠĠĠĠĠĠĠĠĠĠĠĠĠĠĠĠĠĠĠĠĠĠĠĠ": 3791,
      "ĠĠĠĠĠĠĠĠĠĠĠĠĠĠĠĠĠĠĠĠĠĠĠĠĠĠĠĠĠĠĠĠĠĠĠĠĠĠĠĠĠĠĠĠĠĠĠĠĠĠĠ": 3792,
      "ĠĠĠĠĠĠĠĠĠĠĠĠĠĠĠĠĠĠĠĠĠĠĠĠĠĠĠĠĠĠĠĠĠĠĠĠĠĠĠĠĠĠĠĠĠĠĠĠĠĠĠĠĠ": 3793,
      "Ġwanted": 3794,
      "Ġmoral": 3795,
      "Ġfinish": 3796,
      "Ġstreets": 3797,
      "Ġworks": 3798,
      "Ġcharacters": 3799,
      "Ġclearing": 3800,
      "Ġfriends": 3801,
      "Ġinstance": 3802,
      "Ġbeauties": 3803,
      "ĠArthur": 3804,
      "ĠSperma": 3805,
      "ĠPrint": 3806,
      "Ġsteel": 3807,
      "Ġsteps": 3808,
      "Ġbroiled": 3809,
      "Ġhorses": 3810,
      "Ġbecame": 3811,
      "Ġrank": 3812,
      "Ġrows": 3813,
      "Ġsecure": 3814,
      "Ġdeeply": 3815,
      "ĠOnly": 3816,
      "Ġadmit": 3817,
      "OND": 3818,
      "Ġmonster": 3819,
      "Ġmonsters": 3820,
      "Ġdrop": 3821,
      "Ġposition": 3822,
      "000": 3823,
      "CTS": 3824,
      "glass": 3825,
      "smith": 3826,
      "ĠYet": 3827,
      "Ġcarri": 3828,
      "Ġcarry": 3829,
      "Ġdistinct": 3830,
      "Ġdistinction": 3831,
      "Ġprompt": 3832,
      "Ġhearts": 3833,
      "icularly": 3834,
      "Ġruin": 3835,
      "ĠPREJ": 3836,
      "ĠPreface": 3837,
      "ĠVoyages": 3838,
      "Ġplaying": 3839,
      "Ġconsidering": 3840,
      "Ġconsideration": 3841,
      "Ġremembered": 3842,
      "houses": 3843,
      "vidently": 3844,
      "Ġcrowded": 3845,
      "anything": 3846,
      "Ġnicely": 3847,
      "Ġlaughed": 3848,
      "Ġreaders": 3849,
      "Ġfortune": 3850,
      "Ġsudden": 3851,
      "Ġrespectable": 3852,
      "Ġcharm": 3853,
      "Ġcharge": 3854,
      "Thomas": 3855,
      "Ġesca": 3856,
      "Ġpleasure": 3857,
      "Ġprizes": 3858,
      "Ġleaders": 3859,
      "umbling": 3860,
      "ĠBohemian": 3861,
      "Ġimmediate": 3862,
      "looking": 3863,
      "looked": 3864,
      "Ġsentence": 3865,
      "Ġsadly": 3866,
      "Ġcreatures": 3867,
      "Ġcatching": 3868,
      "Ġfurther": 3869,
      "Ġnervous": 3870,
      "Ġheroines": 3871,
      "ĠChase": 3872,
      "Ġ177": 3873,
      "Ġquarter": 3874,
      "ĠTrue": 3875,
      "Ġsurprise": 3876,
      "Ġsurprised": 3877,
      "Ġattacked": 3878,
      "iables": 3879,
      "modore": 3880,
      "piece": 3881,
      "understand": 3882,
      "Ġskill": 3883,
      "Ġmodifying": 3884,
      "Ġinvitation": 3885,
      "Ġdirectly": 3886,
      "setup": 3887,
      "seemed": 3888,
      "Ġhopes": 3889,
      "Ġeasy": 3890,
      "ĠSpace": 3891,
      "Ġangry": 3892,
      "olutely": 3893,
      "Ġ156": 3894,
      "Ġshoes": 3895,
      "Ġvariables": 3896,
      "Ġvalid": 3897,
      "Ġjudge": 3898,
      "perior": 3899,
      "__}\"": 3900,
      "__}('": 3901,
      "Ġswallowed": 3902,
      "Ġremaining": 3903,
      "Ġpassenger": 3904,
      "Ġpassengers": 3905,
      "Ġpossession": 3906,
      "Edmund": 3907,
      "cipher": 3908,
      "difficult": 3909,
      "fancy": 3910,
      "married": 3911,
      "person": 3912,
      "sudden": 3913,
      "uzzling": 3914,
      "onica": 3915,
      "Ġfloor": 3916,
      "Ġfigure": 3917,
      "Ġpractice": 3918,
      "ĠImplementation": 3919,
      "Ġloops": 3920,
      "ursively": 3921,
      "Ġredemo": 3922,
      "ĠMerged": 3923,
      "likely": 3924,
      "ĠCODE": 3925,
      "Ġdeclare": 3926,
      "ĠTwice": 3927,
      "Ġextended": 3928,
      "Ġdescription": 3929,
      "Ġguardsmen": 3930,
      "Ġbeautifully": 3931,
      "Ġsleeps": 3932,
      "Ġdetermined": 3933,
      "Ġopportunity": 3934,
      "Error": 3935,
      "English": 3936,
      "hibit": 3937,
      "uilt": 3938,
      "wheels": 3939,
      "window": 3940,
      "Ġmurmured": 3941,
      "Ġbedroom": 3942,
      "Ġfifteen": 3943,
      "Ġfierce": 3944,
      "Ġinfluence": 3945,
      "Ġdeduce": 3946,
      "Ġpublic": 3947,
      "Ġhealthy": 3948,
      "Ġhanging": 3949,
      "Ġgiving": 3950,
      "Ġestab": 3951,
      "âĢĶâĢĻâĢĿ": 3952,
      "ĠSpectator": 3953,
      "ĠPartition": 3954,
      "Ġshrinking": 3955,
      "Ġventure": 3956,
      "Ġcombine": 3957,
      "ĠRoad": 3958,
      "ĠReturns": 3959,
      "ĠRandomly": 3960,
      "Ġjumped": 3961,
      "Ġpossibly": 3962,
      "achelor": 3963,
      "Ġuncomfortable": 3964,
      "Ġimpatiently": 3965,
      "appeared": 3966,
      "Ġdisgu": 3967,
      "Ġobliged": 3968,
      "Ġglimpse": 3969,
      "Ġclassbrow": 3970,
      "Ġoccurred": 3971,
      "Ġextracts": 3972,
      "Ġadvantage": 3973,
      "Ġsolemnly": 3974,
      "Ġ2025": 3975,
      "')\"": 3976,
      ":]))": 3977,
      "=\",\")": 3978,
      "Bennet": 3979,
      "Ibid": 3980,
      "Precisely": 3981,
      "Quite": 3982,
      "Supplied": 3983,
      "TRACTS": 3984,
      "UDICE": 3985,
      "bishop": 3986,
      "duced": 3987,
      "future": 3988,
      "Ġutter": 3989,
      "Ġignor": 3990,
      "Ġtemper": 3991,
      "Ġoptimized": 3992,
      "Ġwriting": 3993,
      "onacci": 3994,
      "Ġmaketh": 3995,
      "Ġcandle": 3996,
      "Ġfibonacci": 3997,
      "Ġfifty": 3998,
      "Ġfashion": 3999,
      "Ġinquiry": 4000,
      "Ġpacing": 4001,
      "ĠIllustrations": 4002,
      "Ġlamps": 4003,
      "Ġemerged": 4004,
      "Ġefficiency": 4005,
      "Ġreproach": 4006,
      "ĠSECTION": 4007,
      "Ġannotations": 4008,
      "ĠWonderland": 4009,
      "Ġstraight": 4010,
      "Ġdestroyed": 4011,
      "ĠPacific": 4012,
      "ĠDictionary": 4013,
      "Ġquantity": 4014,
      "Ġaloft": 4015,
      "ĠEaglet": 4016,
      "Ġexperience": 4017,
      "Ġpretty": 4018,
      "ĠRecursively": 4019,
      "Ġenergetic": 4020,
      "Ġsortvisu": 4021,
      "Ġcuriosity": 4022,
      "ĠValueError": 4023,
      "Ġafternoon": 4024,
      "Ġpebbles": 4025,
      "Invalid": 4026,
      "ĠPREJUDICE": 4027,
      "Ġescape": 4028,
      "Ġclassbrowser": 4029,
      "'s": 4030,
      ");": 4031,
      ",_": 4032,
      ".]": 4033,
      ".}": 4034,
      "01": 4035,
      "13": 4036,
      "66": 4037,
      ":âĢĶ": 4038,
      "Ah": 4039,
      "AND": 4040,
      "Abs": 4041,
      "BY": 4042,
      "Bingley": 4043,
      "Cur": 4044,
      "DV": 4045,
      "Don": 4046,
      "Darcy": 4047,
      "DRIN": 4048,
      "ET": 4049,
      "EX": 4050,
      "Every": 4051,
      "Elizabeth": 4052,
      "Europe": 4053,
      "Found": 4054,
      "From": 4055,
      "First": 4056,
      "Fish": 4057,
      "Fire": 4058,
      "French": 4059,
      "GY": 4060,
      "Ge": 4061,
      "Gold": 4062,
      "German": 4063,
      "Her": 4064,
      "His": 4065,
      "HER": 4066,
      "Hold": 4067,
      "Holland": 4068,
      "Irene": 4069,
      "Just": 4070,
      "Lady": 4071,
      "LLEN": 4072,
      "NE": 4073,
      "Ne": 4074,
      "None": 4075,
      "Nantucket": 4076,
      "Narrative": 4077,
      "OR": 4078,
      "Of": 4079,
      "Our": 4080,
      "PR": 4081,
      "Po": 4082,
      "Pr": 4083,
      "Prot": 4084,
      "Presently": 4085,
      "Ric": 4086,
      "Race": 4087,
      "Rabbit": 4088,
      "Sc": 4089,
      "Sit": 4090,
      "Sto": 4091,
      "Somet": 4092,
      "Stern": 4093,
      "Suddenly": 4094,
      "TS": 4095,
      "TUR": 4096,
      "UM": 4097,
      "VAL": 4098,
      "Was": 4099,
      "Wal": 4100,
      "Would": 4101,
      "WHALE": 4102,
      "Your": 4103,
      "YMO": 4104,
      "^{": 4105,
      "_;": 4106,
      "_,âĢĿ": 4107,
      "af": 4108,
      "action": 4109,
      "aving": 4110,
      "aff": 4111,
      "after": 4112,
      "actions": 4113,
      "aptain": 4114,
      "bi": 4115,
      "bes": 4116,
      "bet": 4117,
      "bal": 4118,
      "bur": 4119,
      "bro": 4120,
      "bust": 4121,
      "bul": 4122,
      "brew": 4123,
      "bury": 4124,
      "cou": 4125,
      "cle": 4126,
      "cid": 4127,
      "cur": 4128,
      "crow": 4129,
      "cour": 4130,
      "city": 4131,
      "cans": 4132,
      "cited": 4133,
      "ciously": 4134,
      "ccess": 4135,
      "cause": 4136,
      "cretion": 4137,
      "div": 4138,
      "daught": 4139,
      "dream": 4140,
      "drunk": 4141,
      "ev": 4142,
      "ez": 4143,
      "epe": 4144,
      "every": 4145,
      "ender": 4146,
      "either": 4147,
      "eff": 4148,
      "eches": 4149,
      "fr": 4150,
      "far": 4151,
      "fur": 4152,
      "fall": 4153,
      "fast": 4154,
      "fess": 4155,
      "five": 4156,
      "fane": 4157,
      "fair": 4158,
      "fits": 4159,
      "finger": 4160,
      "facult": 4161,
      "gal": 4162,
      "gra": 4163,
      "gment": 4164,
      "gged": 4165,
      "gress": 4166,
      "groom": 4167,
      "gloves": 4168,
      "ggest": 4169,
      "hil": 4170,
      "hval": 4171,
      "ior": 4172,
      "ike": 4173,
      "iel": 4174,
      "iod": 4175,
      "iated": 4176,
      "ixt": 4177,
      "iograph": 4178,
      "iography": 4179,
      "jour": 4180,
      "juring": 4181,
      "ky": 4182,
      "ker": 4183,
      "kers": 4184,
      "knew": 4185,
      "lers": 4186,
      "lple": 4187,
      "lady": 4188,
      "laid": 4189,
      "lster": 4190,
      "loung": 4191,
      "lowly": 4192,
      "lcome": 4193,
      "large": 4194,
      "lanch": 4195,
      "mic": 4196,
      "may": 4197,
      "must": 4198,
      "mast": 4199,
      "mone": 4200,
      "mory": 4201,
      "made": 4202,
      "making": 4203,
      "moment": 4204,
      "mises": 4205,
      "mpat": 4206,
      "ned": 4207,
      "nes": 4208,
      "none": 4209,
      "nect": 4210,
      "nove": 4211,
      "nitude": 4212,
      "ois": 4213,
      "oom": 4214,
      "oam": 4215,
      "oss": 4216,
      "ober": 4217,
      "oking": 4218,
      "pre": 4219,
      "pan": 4220,
      "pic": 4221,
      "pig": 4222,
      "paid": 4223,
      "pair": 4224,
      "power": 4225,
      "purse": 4226,
      "phet": 4227,
      "puzzling": 4228,
      "rs": 4229,
      "ron": 4230,
      "rar": 4231,
      "rat": 4232,
      "rate": 4233,
      "rather": 4234,
      "ritten": 4235,
      "sn": 4236,
      "sing": 4237,
      "sat": 4238,
      "say": 4239,
      "sher": 4240,
      "sure": 4241,
      "spect": 4242,
      "suc": 4243,
      "size": 4244,
      "silence": 4245,
      "scheme": 4246,
      "ti": 4247,
      "tw": 4248,
      "tre": 4249,
      "tte": 4250,
      "took": 4251,
      "tled": 4252,
      "talking": 4253,
      "uy": 4254,
      "uly": 4255,
      "ugh": 4256,
      "uous": 4257,
      "uel": 4258,
      "ugest": 4259,
      "vail": 4260,
      "wa": 4261,
      "wh": 4262,
      "wre": 4263,
      "wis": 4264,
      "wor": 4265,
      "went": 4266,
      "want": 4267,
      "wark": 4268,
      "wood": 4269,
      "watch": 4270,
      "worth": 4271,
      "wford": 4272,
      "walking": 4273,
      "written": 4274,
      "ym": 4275,
      "yer": 4276,
      "yes": 4277,
      "ype": 4278,
      "yond": 4279,
      "zberg": 4280,
      "Â·": 4281,
      "Ġ&": 4282,
      "Ġtall": 4283,
      "Ġtale": 4284,
      "Ġtrave": 4285,
      "Ġtype": 4286,
      "hent": 4287,
      "heart": 4288,
      "help": 4289,
      "Ġaut": 4290,
      "Ġack": 4291,
      "Ġaction": 4292,
      "Ġactions": 4293,
      "Ġavo": 4294,
      "Ġalive": 4295,
      "Ġaunt": 4296,
      "Ġavail": 4297,
      "iner": 4298,
      "inent": 4299,
      "inter": 4300,
      "iners": 4301,
      "ination": 4302,
      "inently": 4303,
      "Ġsli": 4304,
      "Ġsol": 4305,
      "Ġsple": 4306,
      "Ġspl": 4307,
      "Ġsings": 4308,
      "Ġsouth": 4309,
      "Ġsister": 4310,
      "Ġsung": 4311,
      "Ġop": 4312,
      "Ġost": 4313,
      "Ġodd": 4314,
      "rehe": 4315,
      "reak": 4316,
      "Ġwat": 4317,
      "Ġwore": 4318,
      "Ġwide": 4319,
      "Ġwished": 4320,
      "Ġworth": 4321,
      "Ġwishes": 4322,
      "ert": 4323,
      "eror": 4324,
      "eral": 4325,
      "eray": 4326,
      "erfully": 4327,
      "ercise": 4328,
      "erday": 4329,
      "erring": 4330,
      "hack": 4331,
      "hant": 4332,
      "happ": 4333,
      "hamed": 4334,
      "oubt": 4335,
      "ouds": 4336,
      "ites": 4337,
      "itable": 4338,
      "itate": 4339,
      "itive": 4340,
      "itated": 4341,
      "isable": 4342,
      "isive": 4343,
      "isible": 4344,
      "ĠĠĠĠĠĠĠĠĠĠĠĠĠ": 4345,
      "ĠĠĠĠĠĠĠĠĠĠĠĠĠĠ": 4346,
      "onou": 4347,
      "onor": 4348,
      "oned": 4349,
      "onish": 4350,
      "Ġma": 4351,
      "Ġmed": 4352,
      "Ġmot": 4353,
      "Ġmort": 4354,
      "Ġmate": 4355,
      "Ġmine": 4356,
      "Ġmother": 4357,
      "Ġmach": 4358,
      "Ġmale": 4359,
      "Ġmixed": 4360,
      "orough": 4361,
      "orne": 4362,
      "orically": 4363,
      "Ġbow": 4364,
      "Ġbes": 4365,
      "Ġbore": 4366,
      "Ġbred": 4367,
      "Ġbag": 4368,
      "Ġbought": 4369,
      "Ġbody": 4370,
      "Ġbarrow": 4371,
      "Ġbrave": 4372,
      "Ġbesides": 4373,
      "Ġbank": 4374,
      "Ġbird": 4375,
      "Ġbuilt": 4376,
      "Ġce": 4377,
      "Ġchat": 4378,
      "Ġcal": 4379,
      "Ġcook": 4380,
      "Ġcity": 4381,
      "Ġciv": 4382,
      "Ġcott": 4383,
      "Ġcross": 4384,
      "Ġcustom": 4385,
      "Ġfer": 4386,
      "Ġfat": 4387,
      "Ġfast": 4388,
      "Ġfable": 4389,
      "Ġfurn": 4390,
      "Ġfant": 4391,
      "Ġfare": 4392,
      "Ġfitted": 4393,
      "Ġfills": 4394,
      "Ġfinger": 4395,
      "Ġtoast": 4396,
      "edest": 4397,
      "stir": 4398,
      "stem": 4399,
      "stock": 4400,
      "stances": 4401,
      "Ġinfor": 4402,
      "Ġinformation": 4403,
      "Ġinjured": 4404,
      "arling": 4405,
      "arbar": 4406,
      "Ġdr": 4407,
      "Ġden": 4408,
      "Ġdom": 4409,
      "Ġdam": 4410,
      "Ġdust": 4411,
      "Ġdiv": 4412,
      "Ġdress": 4413,
      "Ġdull": 4414,
      "Ġdoth": 4415,
      "Ġdrown": 4416,
      "Ġdial": 4417,
      "Ġduring": 4418,
      "Ġdrug": 4419,
      "Ġdais": 4420,
      "âĢĿ--": 4421,
      "llig": 4422,
      "anter": 4423,
      "anished": 4424,
      "anny": 4425,
      "anxiously": 4426,
      "ata": 4427,
      "atr": 4428,
      "atic": 4429,
      "atri": 4430,
      "ature": 4431,
      "Ġpan": 4432,
      "Ġport": 4433,
      "Ġpant": 4434,
      "Ġpost": 4435,
      "Ġpink": 4436,
      "Ġpity": 4437,
      "Ġpine": 4438,
      "Ġpip": 4439,
      "Ġpull": 4440,
      "Ġpath": 4441,
      "Ġpier": 4442,
      "Ġpushed": 4443,
      "Ġpower": 4444,
      "Ġpaying": 4445,
      "Ġpipe": 4446,
      "celand": 4447,
      "ĠIN": 4448,
      "ĠIX": 4449,
      "Ġnam": 4450,
      "Ġnast": 4451,
      "Ġnations": 4452,
      "Ġnarrative": 4453,
      "sea": 4454,
      "see": 4455,
      "sect": 4456,
      "sequ": 4457,
      "several": 4458,
      "Ġlod": 4459,
      "Ġlane": 4460,
      "Ġlower": 4461,
      "Ġlangu": 4462,
      "Ġlabel": 4463,
      "Ġlines": 4464,
      "Ġlucky": 4465,
      "omin": 4466,
      "oman": 4467,
      "omson": 4468,
      "Ġhes": 4469,
      "Ġheight": 4470,
      "Ġhearing": 4471,
      "Ġheels": 4472,
      "Ġhedge": 4473,
      "Ġheredit": 4474,
      "Ġhelple": 4475,
      "asc": 4476,
      "ashing": 4477,
      "Ġhair": 4478,
      "Ġhate": 4479,
      "Ġhaun": 4480,
      "ots": 4481,
      "othe": 4482,
      "otting": 4483,
      "uted": 4484,
      "ution": 4485,
      "utch": 4486,
      "utral": 4487,
      "Ġhit": 4488,
      "Ġhist": 4489,
      "Ġhig": 4490,
      "Ġhide": 4491,
      "Ġgle": 4492,
      "Ġgame": 4493,
      "Ġgig": 4494,
      "Ġgift": 4495,
      "Ġgreen": 4496,
      "Ġgrove": 4497,
      "ethe": 4498,
      "Ġears": 4499,
      "Ġeff": 4500,
      "Ġevidently": 4501,
      "ica": 4502,
      "icate": 4503,
      "ichael": 4504,
      "Ġyonder": 4505,
      "Ġyards": 4506,
      "iment": 4507,
      "iments": 4508,
      "Ġthro": 4509,
      "Ġthus": 4510,
      "Ġthreat": 4511,
      "Ġthither": 4512,
      "Ġthrown": 4513,
      "Ġthistle": 4514,
      "Ġthorough": 4515,
      "idly": 4516,
      "idge": 4517,
      "idable": 4518,
      "idger": 4519,
      "ala": 4520,
      "alone": 4521,
      "alive": 4522,
      "almost": 4523,
      "alted": 4524,
      "veries": 4525,
      "ĠAm": 4526,
      "ĠAll": 4527,
      "ĠAmer": 4528,
      "ĠAcc": 4529,
      "ĠAfter": 4530,
      "ĠADV": 4531,
      "Ġyouth": 4532,
      "Ġyoungest": 4533,
      "ctober": 4534,
      "Ġur": 4535,
      "Ġulster": 4536,
      "ented": 4537,
      "urke": 4538,
      "urried": 4539,
      "Ġsheet": 4540,
      "Ġshelves": 4541,
      "irting": 4542,
      "Ġones": 4543,
      "Ġrely": 4544,
      "Ġreig": 4545,
      "Ġrejo": 4546,
      "Ġrare": 4547,
      "Ġrubb": 4548,
      "Ġriver": 4549,
      "Ġribs": 4550,
      "Ġsex": 4551,
      "Ġseized": 4552,
      "Ġsending": 4553,
      "Ġsevere": 4554,
      "Ġashore": 4555,
      "Ġassem": 4556,
      "Ġashamed": 4557,
      "aded": 4558,
      "adow": 4559,
      "adise": 4560,
      "isters": 4561,
      "istco": 4562,
      "Ġforget": 4563,
      "ooh": 4564,
      "oops": 4565,
      "Ġnotable": 4566,
      "ĠMa": 4567,
      "ĠMon": 4568,
      "ĠMan": 4569,
      "ĠMond": 4570,
      "ĠMem": 4571,
      "ĠMel": 4572,
      "ĠMag": 4573,
      "ĠMans": 4574,
      "ĠMarch": 4575,
      "ĠMonica": 4576,
      "ĠMichael": 4577,
      "lif": 4578,
      "lip": 4579,
      "liest": 4580,
      "hern": 4581,
      "herry": 4582,
      "tell": 4583,
      "teady": 4584,
      "ify": 4585,
      "ĠTheir": 4586,
      "aming": 4587,
      "amined": 4588,
      "ampered": 4589,
      "amuel": 4590,
      "ĠSha": 4591,
      "ĠSong": 4592,
      "ĠSep": 4593,
      "ĠSaid": 4594,
      "ĠSpit": 4595,
      "ĠSquires": 4596,
      "ĠSends": 4597,
      "ĠSamuel": 4598,
      "Ġled": 4599,
      "Ġlee": 4600,
      "Ġleather": 4601,
      "Ġleap": 4602,
      "Ġlegal": 4603,
      "geon": 4604,
      "gemone": 4605,
      "abs": 4606,
      "abor": 4607,
      "abri": 4608,
      "ĠCor": 4609,
      "ĠCHA": 4610,
      "ĠCol": 4611,
      "ĠCra": 4612,
      "ĠCast": 4613,
      "ĠCof": 4614,
      "ĠColl": 4615,
      "ĠCru": 4616,
      "ĠCrab": 4617,
      "rizes": 4618,
      "ribly": 4619,
      "illy": 4620,
      "iller": 4621,
      "ĠBy": 4622,
      "ĠBrow": 4623,
      "ĠBrit": 4624,
      "ĠBAL": 4625,
      "ĠBachelor": 4626,
      "ĠBreak": 4627,
      "ĠBarbar": 4628,
      "ĠBurke": 4629,
      "quis": 4630,
      "quet": 4631,
      "quest": 4632,
      "queer": 4633,
      "queror": 4634,
      "roquet": 4635,
      "ained": 4636,
      "ainly": 4637,
      "ĠWH": 4638,
      "ĠWould": 4639,
      "ĠWood": 4640,
      "ĠWars": 4641,
      "ĠWell": 4642,
      "ĠWatch": 4643,
      "ĠWidger": 4644,
      "tering": 4645,
      "Ġsall": 4646,
      "Ġmelanch": 4647,
      "Ġmemory": 4648,
      "Ġmeadow": 4649,
      "ĠList": 4650,
      "ĠLord": 4651,
      "ĠLittle": 4652,
      "ĠLine": 4653,
      "ĠLife": 4654,
      "ĠLOND": 4655,
      "ĠLoom": 4656,
      "Ġstate": 4657,
      "Ġstone": 4658,
      "Ġstood": 4659,
      "Ġstup": 4660,
      "Ġstock": 4661,
      "peak": 4662,
      "pement": 4663,
      "peculiar": 4664,
      "veni": 4665,
      "olun": 4666,
      "cks": 4667,
      "Ġweight": 4668,
      "Ġwears": 4669,
      "Ġwelcome": 4670,
      "ĠHO": 4671,
      "ĠHim": 4672,
      "ĠHad": 4673,
      "ĠHist": 4674,
      "ĠHun": 4675,
      "ĠHouse": 4676,
      "ĠHave": 4677,
      "ĠHerman": 4678,
      "ĠHob": 4679,
      "ĠHVAL": 4680,
      "Ġdears": 4681,
      "Ġdepend": 4682,
      "Ġdepart": 4683,
      "orecastle": 4684,
      "thought": 4685,
      "thousand": 4686,
      "unged": 4687,
      "ĠFrom": 4688,
      "ĠFair": 4689,
      "ĠFisher": 4690,
      "ĠFanny": 4691,
      "ĠForecastle": 4692,
      "aller": 4693,
      "ulse": 4694,
      "ulating": 4695,
      "inder": 4696,
      "oundered": 4697,
      "Ġkick": 4698,
      "Ġsoft": 4699,
      "ĠPE": 4700,
      "ĠPl": 4701,
      "ĠPit": 4702,
      "ĠPat": 4703,
      "ĠPur": 4704,
      "ĠPem": 4705,
      "ĠPers": 4706,
      "ĠPost": 4707,
      "ĠPark": 4708,
      "ĠPool": 4709,
      "ĠPictures": 4710,
      "ĠPhil": 4711,
      "race": 4712,
      "ĠĠĠĠĠĠĠĠĠĠĠĠĠĠĠĠĠĠĠĠĠĠĠĠĠĠĠĠĠĠĠĠĠĠĠĠ": 4713,
      "Ġbutter": 4714,
      "Ġwheel": 4715,
      "outs": 4716,
      "Ġsuper": 4717,
      "Ġsuccess": 4718,
      "Ġsuggest": 4719,
      "their": 4720,
      "Ġvon": 4721,
      "Ġvir": 4722,
      "Ġvault": 4723,
      "ersion": 4724,
      "asting": 4725,
      "asted": 4726,
      "astic": 4727,
      "ĠDon": 4728,
      "ĠDown": 4729,
      "ĠDell": 4730,
      "ĠDuck": 4731,
      "ĠDoy": 4732,
      "ĠDav": 4733,
      "ĠDian": 4734,
      "ĠTen": 4735,
      "ĠTake": 4736,
      "ĠTail": 4737,
      "ĠTale": 4738,
      "ĠTech": 4739,
      "ĠThack": 4740,
      "Ġnews": 4741,
      "Ġneglect": 4742,
      "Ġneutral": 4743,
      "opes": 4744,
      "opening": 4745,
      "ume": 4746,
      "ilos": 4747,
      "ĠNat": 4748,
      "ĠNational": 4749,
      "Ġlives": 4750,
      "Ġliving": 4751,
      "Ġlips": 4752,
      "Ġkne": 4753,
      "Ġalle": 4754,
      "Ġalarm": 4755,
      "ourgh": 4756,
      "arded": 4757,
      "ardiners": 4758,
      "Ġcomment": 4759,
      "Ġcomfits": 4760,
      "Ġnoise": 4761,
      "_.)": 4762,
      "Ġ23": 4763,
      "osterous": 4764,
      "ĠEd": 4765,
      "ĠEs": 4766,
      "ĠEnd": 4767,
      "ĠEven": 4768,
      "ĠEdge": 4769,
      "esterday": 4770,
      "Ġexag": 4771,
      "Ġexec": 4772,
      "Ġexhibit": 4773,
      "Ġexquis": 4774,
      "Ġaband": 4775,
      "Ġabund": 4776,
      "Ġcontain": 4777,
      "Ġconvent": 4778,
      "Ġconcer": 4779,
      "Ġconnect": 4780,
      "Ġconveni": 4781,
      "ĠGram": 4782,
      "ĠGaz": 4783,
      "ĠGrand": 4784,
      "ĠGardiners": 4785,
      "Ġimage": 4786,
      "Ġpreser": 4787,
      "Ġprefer": 4788,
      "Ġprecisely": 4789,
      "reated": 4790,
      "icked": 4791,
      "Ġfears": 4792,
      "ags": 4793,
      "agreeable": 4794,
      "deep": 4795,
      "loving": 4796,
      "locity": 4797,
      "ĠReg": 4798,
      "ices": 4799,
      "Ġjar": 4800,
      "Ġjoy": 4801,
      "Ġjury": 4802,
      "Ġjaw": 4803,
      "ferent": 4804,
      "ference": 4805,
      "Ġagreed": 4806,
      "perty": 4807,
      "Ġcouldn": 4808,
      "Ġamount": 4809,
      "Ġpolice": 4810,
      "bert": 4811,
      "berley": 4812,
      "ĠOb": 4813,
      "ĠOr": 4814,
      "ĠOctober": 4815,
      "off": 4816,
      "Ġcap": 4817,
      "Ġcases": 4818,
      "behind": 4819,
      "believe": 4820,
      "igation": 4821,
      "ighed": 4822,
      "ivity": 4823,
      "pty": 4824,
      "idea": 4825,
      "idered": 4826,
      "account": 4827,
      "poor": 4828,
      "ineer": 4829,
      "Ġunable": 4830,
      "Ġuncertain": 4831,
      "Ġunnatural": 4832,
      "Ġunivers": 4833,
      "Ġunerring": 4834,
      "Ġwaylaid": 4835,
      "Ġthank": 4836,
      "inting": 4837,
      "Ġenable": 4838,
      "Ġenorm": 4839,
      "ief": 4840,
      "Ġloves": 4841,
      "Ġ34": 4842,
      "Ġ35": 4843,
      "Ġ38": 4844,
      "Ġ39": 4845,
      "Ġshare": 4846,
      "Ġshakes": 4847,
      "Ġarmed": 4848,
      "Ġsorts": 4849,
      "Ġreturns": 4850,
      "Ġreturning": 4851,
      "ĠĠĠĠĠĠĠĠĠĠĠĠĠĠĠĠĠĠĠĠĠĠĠĠĠĠĠĠĠĠĠĠĠĠĠĠĠĠĠĠĠĠ": 4852,
      "Ġadop": 4853,
      "ĠLeg": 4854,
      "ĠLewis": 4855,
      "exercise": 4856,
      "well": 4857,
      "issors": 4858,
      "Ġcurled": 4859,
      "Ġresp": 4860,
      "arent": 4861,
      "arette": 4862,
      "Ġgets": 4863,
      "Ġrose": 4864,
      "Ġroot": 4865,
      "Ġrocket": 4866,
      "mann": 4867,
      "manne": 4868,
      "ĠVon": 4869,
      "ĠVII": 4870,
      "ĠView": 4871,
      "ĠVIII": 4872,
      "ĠVersion": 4873,
      "Ġpropos": 4874,
      "Ġprovided": 4875,
      "Ġpropose": 4876,
      "Ġproduced": 4877,
      "ĠState": 4878,
      "Ġplot": 4879,
      "Ġplainly": 4880,
      "Ġplunged": 4881,
      "Ġpray": 4882,
      "Ġprinci": 4883,
      "Ġhanded": 4884,
      "Ġchin": 4885,
      "Ġchurch": 4886,
      "Ġchoose": 4887,
      "Ġchief": 4888,
      "Ġpermitted": 4889,
      "ĠHead": 4890,
      "Ġimpulse": 4891,
      "ĠJer": 4892,
      "ĠJonah": 4893,
      "Ġtrif": 4894,
      "Ġtrick": 4895,
      "Ġtrotting": 4896,
      "Ġoffens": 4897,
      "Ġusual": 4898,
      "Ġusually": 4899,
      "Ġ41": 4900,
      "Ġbegun": 4901,
      "aps": 4902,
      "Ġsmile": 4903,
      "Ġsmart": 4904,
      "Ġsmell": 4905,
      "Ġsmallest": 4906,
      "Ġcham": 4907,
      "Ġacute": 4908,
      "Ġaccustomed": 4909,
      "Ġ53": 4910,
      "Ġminor": 4911,
      "Ġminiature": 4912,
      "Ġstruck": 4913,
      "ĠBennett": 4914,
      "books": 4915,
      "inglets": 4916,
      "Ġeverybody": 4917,
      "Ġjustly": 4918,
      "cia": 4919,
      "ciated": 4920,
      "Ġmighty": 4921,
      "Ġbrain": 4922,
      "Ġbride": 4923,
      "others": 4924,
      "ĠâĢĺ_": 4925,
      "strong": 4926,
      "struck": 4927,
      "ĠĠĠĠĠĠĠĠĠĠĠĠĠĠĠĠĠĠĠĠĠĠĠĠĠ": 4928,
      "ĠĠĠĠĠĠĠĠĠĠĠĠĠĠĠĠĠĠĠĠĠĠĠĠĠĠĠĠĠĠ": 4929,
      "Ġgrin": 4930,
      "Ġgrim": 4931,
      "Ġgramm": 4932,
      "Ġdoors": 4933,
      "...": 4934,
      "ailing": 4935,
      "comm": 4936,
      "compar": 4937,
      "common": 4938,
      "upon": 4939,
      "uckily": 4940,
      "Ġentr": 4941,
      "Ġentail": 4942,
      "Ġpaused": 4943,
      "olded": 4944,
      "ĠXI": 4945,
      "ĠXV": 4946,
      "Ġfinds": 4947,
      "Ġfinding": 4948,
      "Ġintended": 4949,
      "Ġintellig": 4950,
      "Ġharness": 4951,
      "pected": 4952,
      "jecturing": 4953,
      "Ġspace": 4954,
      "Ġspran": 4955,
      "Ġspirit": 4956,
      "Ġobjection": 4957,
      "Ġglory": 4958,
      "Ġglaring": 4959,
      "Ġglancing": 4960,
      "Ġglanced": 4961,
      "Ġglasses": 4962,
      "Ġpeering": 4963,
      "lights": 4964,
      "Ġconscious": 4965,
      "Ġconsidered": 4966,
      "pens": 4967,
      "Ġwinds": 4968,
      "lence": 4969,
      "Ġhouses": 4970,
      "ethod": 4971,
      "Ġsooner": 4972,
      "Ġlargest": 4973,
      "photograph": 4974,
      "Ġwaves": 4975,
      "Ġwaistco": 4976,
      "ĠKnight": 4977,
      "ĠKram": 4978,
      "Ġspecial": 4979,
      "Ġspecies": 4980,
      "Ġmariner": 4981,
      "Ġclothes": 4982,
      "Ġscale": 4983,
      "Ġscores": 4984,
      "Ġpassing": 4985,
      "Ġearls": 4986,
      "Ġ108": 4987,
      "ranged": 4988,
      "Ġdesper": 4989,
      "Ġdesires": 4990,
      "Ġgrown": 4991,
      "Ġrooms": 4992,
      "lishment": 4993,
      "mews": 4994,
      "myster": 4995,
      "Ġopening": 4996,
      "Ġwondering": 4997,
      "Ġwonderfully": 4998,
      "ontory": 4999,
      "icted": 5000,
      "Ġuseful": 5001,
      "Ġwhereas": 5002,
      "Ġsetting": 5003,
      "Ġsettling": 5004,
      "Ġboard": 5005,
      "Ġbene": 5006,
      "Ġcoax": 5007,
      "Ġwindows": 5008,
      "prove": 5009,
      "Ġteach": 5010,
      "Ġtelescope": 5011,
      "Ġintention": 5012,
      "Ġremarkably": 5013,
      "Ġasking": 5014,
      "ĠEngland": 5015,
      "chant": 5016,
      "charm": 5017,
      "ucumber": 5018,
      "Ġsurve": 5019,
      "Ġsurviv": 5020,
      "Ġflatter": 5021,
      "Ġflirting": 5022,
      "Ġfollowed": 5023,
      "Ġgulf": 5024,
      "Ġanimated": 5025,
      "Ġ60": 5026,
      "Ġ67": 5027,
      "Ġ69": 5028,
      "Ġ84": 5029,
      "Ġ87": 5030,
      "Ġ89": 5031,
      "ĠUp": 5032,
      "ĠUsher": 5033,
      "Ġsatire": 5034,
      "respect": 5035,
      "angled": 5036,
      "Ġphilos": 5037,
      "ĠComstock": 5038,
      "Ġkindness": 5039,
      "nowled": 5040,
      "ocking": 5041,
      "Ġ95": 5042,
      "Ġ97": 5043,
      "Ġemotion": 5044,
      "Ġempty": 5045,
      "Ġreply": 5046,
      "Ġ113": 5047,
      "Ġ118": 5048,
      "Ġworking": 5049,
      "Ġ75": 5050,
      "Ġ78": 5051,
      "readers": 5052,
      "Ġclever": 5053,
      "Ġinstinct": 5054,
      "Ġhopeless": 5055,
      "ĠArm": 5056,
      "ĠArch": 5057,
      "ĠArgemone": 5058,
      "ĠSpermacetti": 5059,
      "ĠPrim": 5060,
      "Ġcontent": 5061,
      "Ġcontrary": 5062,
      "Ġcontribut": 5063,
      "Ġarms": 5064,
      "Soon": 5065,
      "country": 5066,
      "Ġactive": 5067,
      "Ġactual": 5068,
      "Ġactually": 5069,
      "Ġactivity": 5070,
      "Ġslave": 5071,
      "Ġseriously": 5072,
      "Ġserpent": 5073,
      "Ġservant": 5074,
      "Ġstep": 5075,
      "Ġstepped": 5076,
      "Ġoccup": 5077,
      "ouching": 5078,
      "Ġmouths": 5079,
      "Ġbroad": 5080,
      "Ġbroke": 5081,
      "Ġbooks": 5082,
      "Ġcrash": 5083,
      "Ġcrime": 5084,
      "Ġchest": 5085,
      "Ġcheerfully": 5086,
      "Ġcloak": 5087,
      "Ġsecre": 5088,
      "Ġassuring": 5089,
      "tember": 5090,
      "Ġextraordinary": 5091,
      "Ġartist": 5092,
      "Ġobserve": 5093,
      "Ġobserving": 5094,
      "Nothing": 5095,
      "scri": 5096,
      "scissors": 5097,
      "heads": 5098,
      "Ġspoken": 5099,
      "Ġwrite": 5100,
      "Ġwrote": 5101,
      "Ġmonstrous": 5102,
      "Ġdrive": 5103,
      "Ġdriven": 5104,
      "Ġdriving": 5105,
      "Ġhumorous": 5106,
      "Ġhumanity": 5107,
      "ĠBoat": 5108,
      "ĠLetters": 5109,
      "ĠLongitude": 5110,
      "Ġdelighted": 5111,
      "ENTUR": 5112,
      "glad": 5113,
      "however": 5114,
      "Ġapples": 5115,
      "Ġapparent": 5116,
      "Ġauthors": 5117,
      "Ġauthority": 5118,
      "Ġcarriage": 5119,
      "Ġpromised": 5120,
      "Ġpromontory": 5121,
      "alley": 5122,
      "Ġrules": 5123,
      "Ġformidable": 5124,
      "ĠBeatri": 5125,
      "ĠWebster": 5126,
      "ĠWhit": 5127,
      "Ġstands": 5128,
      "Ġ132": 5129,
      "ĠPRIDE": 5130,
      "Ġadvice": 5131,
      "Ġadvise": 5132,
      "Ġadvisable": 5133,
      "Ġconsiderable": 5134,
      "passed": 5135,
      "passion": 5136,
      "passage": 5137,
      "Ġmuttering": 5138,
      "Ġcabman": 5139,
      "Ġcabinet": 5140,
      "Ġconditions": 5141,
      "Ġcrowds": 5142,
      "Ġcrying": 5143,
      "Ġfactor": 5144,
      "anybody": 5145,
      "Ġregion": 5146,
      "Ġforty": 5147,
      "Ġfortnight": 5148,
      "ĠChrist": 5149,
      "Ġexpress": 5150,
      "Ġexpression": 5151,
      "Ġclosely": 5152,
      "Ġhundreds": 5153,
      "Thunder": 5154,
      "cannot": 5155,
      "fortunate": 5156,
      "nature": 5157,
      "penter": 5158,
      "Ġtrial": 5159,
      "Ġtribe": 5160,
      "Ġwatching": 5161,
      "Ġincid": 5162,
      "Ġincisive": 5163,
      "arris": 5164,
      "Ġprivate": 5165,
      "Ġequally": 5166,
      "import": 5167,
      "ification": 5168,
      "Ġmeeting": 5169,
      "Ġ166": 5170,
      "Ġdelicately": 5171,
      "Ġdelicacy": 5172,
      "Ġshowing": 5173,
      "Ġsuppos": 5174,
      "themselves": 5175,
      "umbria": 5176,
      "Ġcomparison": 5177,
      "against": 5178,
      "Ġcareless": 5179,
      "Ġprobable": 5180,
      "Ġbeginning": 5181,
      "formality": 5182,
      "Ġsharply": 5183,
      "ICK": 5184,
      "box": 5185,
      "board": 5186,
      "boards": 5187,
      "grand": 5188,
      "grasp": 5189,
      "grinder": 5190,
      "minutes": 5191,
      "Ġsignal": 5192,
      "Ġmoving": 5193,
      "Ġmistaken": 5194,
      "Ġcreated": 5195,
      "Ġfailure": 5196,
      "Ġinclined": 5197,
      "Ġpurse": 5198,
      "ĠIndian": 5199,
      "Ġholding": 5200,
      "Ġreaching": 5201,
      "Ġreasoner": 5202,
      "Ġreasoning": 5203,
      "Ġheroine": 5204,
      "ĠChace": 5205,
      "ĠCarroll": 5206,
      "ĠCarpenter": 5207,
      "Ġsticks": 5208,
      "ĠDeck": 5209,
      "Ġquarters": 5210,
      "ĠThomson": 5211,
      "ĠTrans": 5212,
      "Ġexplained": 5213,
      "Ġmarrying": 5214,
      "Ġattacks": 5215,
      "particularly": 5216,
      "pieces": 5217,
      "ville": 5218,
      "Ġsympat": 5219,
      "Ġsystem": 5220,
      "Ġmodern": 5221,
      "Ġbattle": 5222,
      "Ġdrag": 5223,
      "Ġdraw": 5224,
      "Ġdirections": 5225,
      "Ġhung": 5226,
      "Ġhunting": 5227,
      "Ġhunks": 5228,
      "Ġhoping": 5229,
      "Ġhours": 5230,
      "Ġeasily": 5231,
      "Ġrefused": 5232,
      "Ġselfish": 5233,
      "Ġforgot": 5234,
      "riginal": 5235,
      "Ġangrily": 5236,
      "Ġstrike": 5237,
      "Ġstriking": 5238,
      "Ġshouting": 5239,
      "Ġvarious": 5240,
      "Ġexpecting": 5241,
      "Ġdiscover": 5242,
      "Ġremained": 5243,
      "Ġemployed": 5244,
      "Ġemploys": 5245,
      "Contents": 5246,
      "Contrast": 5247,
      "Still": 5248,
      "centred": 5249,
      "century": 5250,
      "change": 5251,
      "changed": 5252,
      "different": 5253,
      "shall": 5254,
      "shape": 5255,
      "suddenly": 5256,
      "yourself": 5257,
      "reenland": 5258,
      "enesses": 5259,
      "orrowful": 5260,
      "Ġcentre": 5261,
      "Ġcentury": 5262,
      "Ġcigars": 5263,
      "Ġcigarette": 5264,
      "Ġfloating": 5265,
      "Ġfigures": 5266,
      "Ġrealism": 5267,
      "Ġwhiskers": 5268,
      "ĠScandal": 5269,
      "ĠSea": 5270,
      "ĠConan": 5271,
      "ĠConqueror": 5272,
      "Ġstopped": 5273,
      "ĠTears": 5274,
      "Ġnovels": 5275,
      "Ġnovelist": 5276,
      "Ġguessed": 5277,
      "Ġbeautiful": 5278,
      "Ġextremely": 5279,
      "Ġadmirable": 5280,
      "Ġadmirably": 5281,
      "Ġdetermining": 5282,
      "Ġopportunities": 5283,
      "Commodore": 5284,
      "consciously": 5285,
      "cupboards": 5286,
      "growing": 5287,
      "gledy": 5288,
      "lotte": 5289,
      "ladies": 5290,
      "metals": 5291,
      "rmstein": 5292,
      "ruscans": 5293,
      "superior": 5294,
      "something": 5295,
      "sometimes": 5296,
      "ushroom": 5297,
      "Ġvelocity": 5298,
      "Ġtrembling": 5299,
      "hetic": 5300,
      "Ġsingular": 5301,
      "Ġsilver": 5302,
      "Ġmetaphys": 5303,
      "Ġmessages": 5304,
      "Ġcolour": 5305,
      "Ġfrost": 5306,
      "Ġforecastle": 5307,
      "Ġdreadful": 5308,
      "Ġlawyer": 5309,
      "Ġloungers": 5310,
      "Ġeffects": 5311,
      "Ġthirteen": 5312,
      "Ġthirty": 5313,
      "ĠMorcar": 5314,
      "ĠShipwre": 5315,
      "ĠCharlotte": 5316,
      "ĠLatin": 5317,
      "ĠLatitude": 5318,
      "Ġ199": 5319,
      "Ġorders": 5320,
      "Ġordinary": 5321,
      "Ġshriek": 5322,
      "ĠDaniel": 5323,
      "Ġneatly": 5324,
      "Ġpreposterous": 5325,
      "Ġpressed": 5326,
      "delighted": 5327,
      "Ġaffectionate": 5328,
      "Ġarrived": 5329,
      "Ġarrival": 5330,
      "Ġchoice": 5331,
      "Ġchoked": 5332,
      "Ġtransactions": 5333,
      "Ġofficer": 5334,
      "Ġswiftly": 5335,
      "Ġswiftness": 5336,
      "Ġappearance": 5337,
      "Ġkeeping": 5338,
      "Ġcompetent": 5339,
      "Ġsatisfact": 5340,
      "Ġsimply": 5341,
      "Ġsimplif": 5342,
      "Ġcharacteristic": 5343,
      "Ġcharacteristics": 5344,
      "ĠQuad": 5345,
      "Ġfamiliar": 5346,
      "Ġfamilies": 5347,
      "Ġbelongs": 5348,
      "Adler": 5349,
      "Hole": 5350,
      "LOGY": 5351,
      "Librar": 5352,
      "gentleman": 5353,
      "known": 5354,
      "ltons": 5355,
      "pherd": 5356,
      "priety": 5357,
      "salms": 5358,
      "ugg": 5359,
      "whales": 5360,
      "Ġetext": 5361,
      "Ġtouches": 5362,
      "Ġastonish": 5363,
      "Ġsnatch": 5364,
      "Ġsituation": 5365,
      "Ġobey": 5366,
      "Ġwitness": 5367,
      "Ġwounded": 5368,
      "Ġbalancing": 5369,
      "Ġbarely": 5370,
      "Ġcrews": 5371,
      "Ġcrack": 5372,
      "Ġcoffee": 5373,
      "Ġcircumstances": 5374,
      "Ġcynicism": 5375,
      "Ġfemale": 5376,
      "Ġinvest": 5377,
      "arsely": 5378,
      "Ġpett": 5379,
      "Ġpolitely": 5380,
      "Ġpapers": 5381,
      "Ġpicture": 5382,
      "Ġpatient": 5383,
      "Ġnorthward": 5384,
      "Ġhookah": 5385,
      "Ġgallery": 5386,
      "Ġgraces": 5387,
      "Ġgravely": 5388,
      "Ġelopement": 5389,
      "Ġrepeated": 5390,
      "ĠSmith": 5391,
      "ĠCeti": 5392,
      "Ġsavage": 5393,
      "Ġstrokes": 5394,
      "Ġstretched": 5395,
      "Ġdozen": 5396,
      "Ġweapon": 5397,
      "Ġdegree": 5398,
      "Ġdeliber": 5399,
      "ĠParis": 5400,
      "ĠPrair": 5401,
      "Ġmystery": 5402,
      "Ġquietly": 5403,
      "ĠNorris": 5404,
      "ĠNorthumbria": 5405,
      "Ġmannish": 5406,
      "Ġarchbishop": 5407,
      "Ġadjusted": 5408,
      "ĠVirginia": 5409,
      "Ġproblem": 5410,
      "Ġprotect": 5411,
      "Ġentertained": 5412,
      "Ġharpoone": 5413,
      "Ġsporting": 5414,
      "Ġpeeped": 5415,
      "Ġvoyage": 5416,
      "conversations": 5417,
      "Ġclimb": 5418,
      "claimed": 5419,
      "Ġpassionate": 5420,
      "Ġearnestly": 5421,
      "Ġcoachman": 5422,
      "Ġ1828": 5423,
      "Ġguinea": 5424,
      "Ġcarries": 5425,
      "Ġdistinctly": 5426,
      "Ġestablishment": 5427,
      "Ġignorant": 5428,
      "Absolutely": 5429,
      "DRINK": 5430,
      "EXTRACTS": 5431,
      "Goldsmith": 5432,
      "ORGE": 5433,
      "Poor": 5434,
      "Pray": 5435,
      "Protested": 5436,
      "Richar": 5437,
      "Stolen": 5438,
      "YMOLOGY": 5439,
      "clear": 5440,
      "crowded": 5441,
      "divis": 5442,
      "daughters": 5443,
      "epest": 5444,
      "panied": 5445,
      "success": 5446,
      "warks": 5447,
      "zbergen": 5448,
      "hentic": 5449,
      "Ġauthentic": 5450,
      "Ġacknowled": 5451,
      "Ġavoid": 5452,
      "Ġostlers": 5453,
      "Ġmotives": 5454,
      "Ġbarrowful": 5455,
      "Ġcottage": 5456,
      "Ġfantastic": 5457,
      "edestri": 5458,
      "Ġinformed": 5459,
      "Ġdrowned": 5460,
      "Ġdialogue": 5461,
      "Ġpanting": 5462,
      "Ġnames": 5463,
      "Ġnasty": 5464,
      "Ġlanguid": 5465,
      "Ġhereditary": 5466,
      "Ġhelpless": 5467,
      "Ġhaunts": 5468,
      "Ġgigantic": 5469,
      "Ġthoroughly": 5470,
      "ĠADVENTUR": 5471,
      "Ġreigning": 5472,
      "Ġseverely": 5473,
      "ĠMonday": 5474,
      "ĠMelville": 5475,
      "ĠSeptember": 5476,
      "ĠSpitzbergen": 5477,
      "abriel": 5478,
      "ĠCrawford": 5479,
      "ĠCoffin": 5480,
      "ĠBrowne": 5481,
      "ĠBarbara": 5482,
      "ĠWarsaw": 5483,
      "Ġmelancholy": 5484,
      "ĠLONDON": 5485,
      "ĠLoomings": 5486,
      "Ġstupid": 5487,
      "Ġstockings": 5488,
      "ĠPemberley": 5489,
      "ĠDella": 5490,
      "ĠDoyle": 5491,
      "ĠDavid": 5492,
      "ĠDiana": 5493,
      "ĠThackeray": 5494,
      "Ġexagger": 5495,
      "Ġexecuted": 5496,
      "Ġconvention": 5497,
      "ĠGrammar": 5498,
      "ĠGazette": 5499,
      "Ġenormous": 5500,
      "mannered": 5501,
      "Ġprinciples": 5502,
      "Ġgrammars": 5503,
      "Ġsprang": 5504,
      "Ġwaistcoat": 5505,
      "ĠKnights": 5506,
      "ĠKramm": 5507,
      "mysteries": 5508,
      "Ġcoaxing": 5509,
      "Ġphilosop": 5510,
      "Ġcontributes": 5511,
      "ĠBeatrix": 5512,
      "Contrasted": 5513,
      "ĠShipwreck": 5514,
      "Librarian": 5515,
      "Ġastonishment": 5516,
      "ĠADVENTURES": 5517
    },
    "merges": [
      [
        "Ġ",
        "Ġ"
      ],
      [
        "Ġ",
        "t"
      ],
      [
        "h",
        "e"
      ],
      [
        "Ġ",
        "a"
      ],
      [
        "ĠĠ",
        "ĠĠ"
      ],
      [
        "i",
        "n"
      ],
      [
        "â",
        "Ģ"
      ],
      [
        "Ġ",
        "s"
      ],
      [
        "Ġt",
        "he"
      ],
      [
        "Ġ",
        "o"
      ],
      [
        "r",
        "e"
      ],
      [
        "Ġ",
        "w"
      ],
      [
        "n",
        "d"
      ],
      [
        "e",
        "r"
      ],
      [
        "h",
        "a"
      ],
      [
        "o",
        "u"
      ],
      [
        "i",
        "t"
      ],
      [
        "l",
        "e"
      ],
      [
        "i",
        "s"
      ],
      [
        "ĠĠĠĠ",
        "ĠĠĠĠ"
      ],
      [
        "e",
        "n"
      ],
      [
        "o",
        "n"
      ],
      [
        "Ġ",
        "m"
      ],
      [
        "o",
        "r"
      ],
      [
        "Ġ",
        "b"
      ],
      [
        "Ġ",
        "c"
      ],
      [
        "in",
        "g"
      ],
      [
        "Ġo",
        "f"
      ],
      [
        "Ġ",
        "f"
      ],
      [
        "Ġt",
        "o"
      ],
      [
        "Ġa",
        "nd"
      ],
      [
        "e",
        "d"
      ],
      [
        "s",
        "t"
      ],
      [
        "Ġ",
        "in"
      ],
      [
        "a",
        "r"
      ],
      [
        "âĢ",
        "ľ"
      ],
      [
        "Ġ",
        "d"
      ],
      [
        "âĢ",
        "Ŀ"
      ],
      [
        "l",
        "l"
      ],
      [
        "a",
        "n"
      ],
      [
        "a",
        "t"
      ],
      [
        "Ġ",
        "p"
      ],
      [
        "c",
        "e"
      ],
      [
        "o",
        "w"
      ],
      [
        "Ġ",
        "I"
      ],
      [
        "Ġ",
        "n"
      ],
      [
        "s",
        "e"
      ],
      [
        "Ġ",
        "l"
      ],
      [
        "o",
        "m"
      ],
      [
        "ĠĠ",
        "Ġ"
      ],
      [
        "Ġ",
        "he"
      ],
      [
        "a",
        "s"
      ],
      [
        "Ġ",
        "ha"
      ],
      [
        "e",
        "s"
      ],
      [
        "o",
        "t"
      ],
      [
        "u",
        "t"
      ],
      [
        "Ġ",
        "h"
      ],
      [
        "Ġ",
        "it"
      ],
      [
        "ha",
        "t"
      ],
      [
        "ĠĠĠĠĠĠĠĠ",
        "ĠĠĠĠĠĠĠĠ"
      ],
      [
        "Ġ",
        "g"
      ],
      [
        "Ġb",
        "e"
      ],
      [
        "i",
        "on"
      ],
      [
        "âĢ",
        "Ļ"
      ],
      [
        "e",
        "t"
      ],
      [
        "l",
        "y"
      ],
      [
        "Ġ",
        "e"
      ],
      [
        "i",
        "c"
      ],
      [
        "Ġ",
        "y"
      ],
      [
        "g",
        "h"
      ],
      [
        "i",
        "m"
      ],
      [
        "Ġt",
        "h"
      ],
      [
        "i",
        "d"
      ],
      [
        "v",
        "e"
      ],
      [
        "Ġ",
        "âĢľ"
      ],
      [
        "a",
        "l"
      ],
      [
        "T",
        "he"
      ],
      [
        "v",
        "er"
      ],
      [
        "Ġ",
        "A"
      ],
      [
        "Ġy",
        "ou"
      ],
      [
        "c",
        "t"
      ],
      [
        "Ġ",
        "u"
      ],
      [
        "en",
        "t"
      ],
      [
        "l",
        "d"
      ],
      [
        "u",
        "r"
      ],
      [
        "Ġs",
        "he"
      ],
      [
        "Ġw",
        "as"
      ],
      [
        "Ġt",
        "hat"
      ],
      [
        "i",
        "r"
      ],
      [
        "Ġo",
        "n"
      ],
      [
        "Ġ",
        "re"
      ],
      [
        ".",
        "âĢĿ"
      ],
      [
        "a",
        "y"
      ],
      [
        "it",
        "h"
      ],
      [
        "Ġ",
        "is"
      ],
      [
        "Ġ",
        "r"
      ],
      [
        "Ġs",
        "e"
      ],
      [
        "Ġhe",
        "r"
      ],
      [
        "gh",
        "t"
      ],
      [
        "Ġa",
        "s"
      ],
      [
        "a",
        "d"
      ],
      [
        "c",
        "h"
      ],
      [
        "is",
        "t"
      ],
      [
        "Ġf",
        "or"
      ],
      [
        "o",
        "o"
      ],
      [
        "Ġn",
        "ot"
      ],
      [
        "Ġw",
        "h"
      ],
      [
        "Ġw",
        "ith"
      ],
      [
        "Ġ",
        "M"
      ],
      [
        "l",
        "i"
      ],
      [
        "he",
        "r"
      ],
      [
        "âĢ",
        "Ķ"
      ],
      [
        "t",
        "e"
      ],
      [
        "i",
        "f"
      ],
      [
        "Ġ",
        "The"
      ],
      [
        "a",
        "m"
      ],
      [
        "Ġ",
        "S"
      ],
      [
        "Ġ",
        "le"
      ],
      [
        "g",
        "e"
      ],
      [
        "or",
        "t"
      ],
      [
        "a",
        "b"
      ],
      [
        "Ġ",
        "C"
      ],
      [
        "r",
        "i"
      ],
      [
        "Ġa",
        "t"
      ],
      [
        "k",
        "e"
      ],
      [
        "Ġa",
        "n"
      ],
      [
        "i",
        "ll"
      ],
      [
        "Ġ",
        "B"
      ],
      [
        "a",
        "nd"
      ],
      [
        "Ġh",
        "is"
      ],
      [
        "q",
        "u"
      ],
      [
        "ou",
        "ld"
      ],
      [
        "r",
        "o"
      ],
      [
        "or",
        "d"
      ],
      [
        "u",
        "st"
      ],
      [
        "a",
        "in"
      ],
      [
        "Ġ",
        "W"
      ],
      [
        "t",
        "er"
      ],
      [
        "Ġs",
        "a"
      ],
      [
        "E",
        "R"
      ],
      [
        "Ġm",
        "e"
      ],
      [
        "Ġ",
        "L"
      ],
      [
        "Ġs",
        "t"
      ],
      [
        "H",
        "A"
      ],
      [
        "p",
        "e"
      ],
      [
        "v",
        "en"
      ],
      [
        "Ġd",
        "o"
      ],
      [
        "P",
        "T"
      ],
      [
        "o",
        "l"
      ],
      [
        "s",
        "s"
      ],
      [
        "c",
        "k"
      ],
      [
        "HA",
        "PT"
      ],
      [
        "HAPT",
        "ER"
      ],
      [
        "Ġw",
        "e"
      ],
      [
        "Ġha",
        "d"
      ],
      [
        "Ġu",
        "p"
      ],
      [
        "u",
        "re"
      ],
      [
        "Ġ",
        "1"
      ],
      [
        "Ġ",
        "H"
      ],
      [
        "Ġo",
        "r"
      ],
      [
        "Ġd",
        "e"
      ],
      [
        "an",
        "ce"
      ],
      [
        "C",
        "HAPTER"
      ],
      [
        "Ġ",
        "_"
      ],
      [
        "s",
        "h"
      ],
      [
        "l",
        "f"
      ],
      [
        "o",
        "re"
      ],
      [
        "t",
        "h"
      ],
      [
        "u",
        "n"
      ],
      [
        ",",
        "âĢĿ"
      ],
      [
        "o",
        "nd"
      ],
      [
        "Ġa",
        "ll"
      ],
      [
        "t",
        "o"
      ],
      [
        "Ġha",
        "ve"
      ],
      [
        "r",
        "ow"
      ],
      [
        "i",
        "ght"
      ],
      [
        "Ġ",
        "F"
      ],
      [
        "ct",
        "ion"
      ],
      [
        "a",
        "ll"
      ],
      [
        "u",
        "l"
      ],
      [
        "in",
        "d"
      ],
      [
        "om",
        "e"
      ],
      [
        "ou",
        "nd"
      ],
      [
        "it",
        "t"
      ],
      [
        "oo",
        "k"
      ],
      [
        "r",
        "om"
      ],
      [
        "Ġ",
        "k"
      ],
      [
        "Ġs",
        "o"
      ],
      [
        "ver",
        "y"
      ],
      [
        "ou",
        "s"
      ],
      [
        "Ġ",
        "="
      ],
      [
        "Ġ",
        "P"
      ],
      [
        "li",
        "ce"
      ],
      [
        "ic",
        "h"
      ],
      [
        "Ġsa",
        "id"
      ],
      [
        "\"",
        "\""
      ],
      [
        ">",
        ">"
      ],
      [
        "r",
        "a"
      ],
      [
        "Ġs",
        "h"
      ],
      [
        "ĠĠĠĠĠĠĠĠĠĠĠĠĠĠĠĠ",
        "ĠĠĠĠĠĠĠĠĠĠĠĠĠĠĠĠ"
      ],
      [
        "Ġb",
        "ut"
      ],
      [
        "Ġm",
        "y"
      ],
      [
        "!",
        "âĢĿ"
      ],
      [
        "e",
        "m"
      ],
      [
        "Ġb",
        "y"
      ],
      [
        "ha",
        "le"
      ],
      [
        "ist",
        "ance"
      ],
      [
        "Ġw",
        "he"
      ],
      [
        "ou",
        "t"
      ],
      [
        "Ġth",
        "is"
      ],
      [
        "Ġs",
        "u"
      ],
      [
        "t",
        "he"
      ],
      [
        "re",
        "d"
      ],
      [
        "ow",
        "n"
      ],
      [
        "Ġ",
        "v"
      ],
      [
        "ĠĠĠĠ",
        "ĠĠĠ"
      ],
      [
        "er",
        "s"
      ],
      [
        "Ġon",
        "e"
      ],
      [
        "a",
        "st"
      ],
      [
        "i",
        "le"
      ],
      [
        "Ġ",
        "D"
      ],
      [
        "Ġ",
        "qu"
      ],
      [
        "at",
        "ion"
      ],
      [
        "?",
        "âĢĿ"
      ],
      [
        "n",
        "t"
      ],
      [
        "te",
        "in"
      ],
      [
        "ven",
        "sh"
      ],
      [
        "vensh",
        "tein"
      ],
      [
        "Ġ",
        "T"
      ],
      [
        "Ġwh",
        "ich"
      ],
      [
        "w",
        "ord"
      ],
      [
        "Ġ",
        "if"
      ],
      [
        "se",
        "lf"
      ],
      [
        "ir",
        "st"
      ],
      [
        "Ġn",
        "e"
      ],
      [
        "o",
        "p"
      ],
      [
        "u",
        "m"
      ],
      [
        "Ġo",
        "ut"
      ],
      [
        "ĠA",
        "lice"
      ],
      [
        "ab",
        "le"
      ],
      [
        "i",
        "l"
      ],
      [
        "at",
        "e"
      ],
      [
        "Ġ",
        "N"
      ],
      [
        "Ġa",
        "re"
      ],
      [
        "ha",
        "n"
      ],
      [
        "am",
        "e"
      ],
      [
        "itt",
        "le"
      ],
      [
        "Ġl",
        "i"
      ],
      [
        "ur",
        "n"
      ],
      [
        "Ġk",
        "n"
      ],
      [
        "Ġa",
        "l"
      ],
      [
        "ou",
        "r"
      ],
      [
        "Ġf",
        "rom"
      ],
      [
        "ar",
        "d"
      ],
      [
        "Ġc",
        "om"
      ],
      [
        "Ġn",
        "o"
      ],
      [
        "_",
        "."
      ],
      [
        "e",
        "l"
      ],
      [
        "Ġ",
        "2"
      ],
      [
        "an",
        "t"
      ],
      [
        "o",
        "st"
      ],
      [
        "Ġ",
        "E"
      ],
      [
        "Ġ",
        "âĢĶ"
      ],
      [
        "e",
        "st"
      ],
      [
        "p",
        "y"
      ],
      [
        "r",
        "y"
      ],
      [
        "t",
        "her"
      ],
      [
        "u",
        "s"
      ],
      [
        "Ġe",
        "x"
      ],
      [
        "d",
        "istance"
      ],
      [
        "s",
        "ort"
      ],
      [
        "Ġa",
        "b"
      ],
      [
        "on",
        "g"
      ],
      [
        "Ġc",
        "on"
      ],
      [
        "Ġwh",
        "o"
      ],
      [
        "ĠâĢĶ",
        "_"
      ],
      [
        "Ġ",
        "G"
      ],
      [
        "Ġ",
        "very"
      ],
      [
        "Ġw",
        "ill"
      ],
      [
        "o",
        "d"
      ],
      [
        "Ġ",
        "im"
      ],
      [
        "Ġd",
        "own"
      ],
      [
        "Ġp",
        "re"
      ],
      [
        "Ġl",
        "ittle"
      ],
      [
        "ou",
        "se"
      ],
      [
        "ou",
        "gh"
      ],
      [
        "re",
        "at"
      ],
      [
        "on",
        "e"
      ],
      [
        "ol",
        "le"
      ],
      [
        "c",
        "ond"
      ],
      [
        "ic",
        "k"
      ],
      [
        "i",
        "ous"
      ],
      [
        "ar",
        "t"
      ],
      [
        "a",
        "k"
      ],
      [
        "Ġthe",
        "re"
      ],
      [
        "Ġm",
        "an"
      ],
      [
        "Ġf",
        "e"
      ],
      [
        "Ġh",
        "im"
      ],
      [
        "Ġwhe",
        "n"
      ],
      [
        "p",
        "p"
      ],
      [
        "is",
        "h"
      ],
      [
        "Ġin",
        "to"
      ],
      [
        "olle",
        "ction"
      ],
      [
        "Ġthe",
        "y"
      ],
      [
        "Ġw",
        "hat"
      ],
      [
        "a",
        "g"
      ],
      [
        "d",
        "e"
      ],
      [
        "in",
        "k"
      ],
      [
        "es",
        "s"
      ],
      [
        "l",
        "o"
      ],
      [
        "Ġ",
        "("
      ],
      [
        "Ġ",
        "R"
      ],
      [
        "ĠM",
        "r"
      ],
      [
        "i",
        "ce"
      ],
      [
        "Ġ",
        "j"
      ],
      [
        "le",
        "d"
      ],
      [
        "Ġg",
        "o"
      ],
      [
        "Ġt",
        "w"
      ],
      [
        "it",
        "e"
      ],
      [
        "ar",
        "k"
      ],
      [
        "Ġan",
        "y"
      ],
      [
        "Ġli",
        "ke"
      ],
      [
        "Ġkn",
        "ow"
      ],
      [
        "a",
        "ke"
      ],
      [
        "t",
        "urn"
      ],
      [
        "f",
        "e"
      ],
      [
        "i",
        "ve"
      ],
      [
        "Ġa",
        "g"
      ],
      [
        "\"",
        ")"
      ],
      [
        "p",
        "er"
      ],
      [
        "p",
        "le"
      ],
      [
        "he",
        "d"
      ],
      [
        "it",
        "y"
      ],
      [
        "Ġc",
        "ould"
      ],
      [
        "Ġha",
        "s"
      ],
      [
        "ion",
        "s"
      ],
      [
        "Ġa",
        "m"
      ],
      [
        "Ġthe",
        "m"
      ],
      [
        "Ġo",
        "ther"
      ],
      [
        "Ġp",
        "o"
      ],
      [
        "Ġwe",
        "re"
      ],
      [
        "b",
        "er"
      ],
      [
        "Ġ",
        "O"
      ],
      [
        "Ġ",
        ">>"
      ],
      [
        "Ġw",
        "hale"
      ],
      [
        "Ġf",
        "irst"
      ],
      [
        "Ġle",
        "venshtein"
      ],
      [
        "Ġ>>",
        ">"
      ],
      [
        "h",
        "ing"
      ],
      [
        "o",
        "f"
      ],
      [
        "s",
        "er"
      ],
      [
        "ĠĠĠĠ",
        "Ġ"
      ],
      [
        "ĠI",
        "t"
      ],
      [
        "Ġab",
        "out"
      ],
      [
        "Ġt",
        "im"
      ],
      [
        "Ġc",
        "a"
      ],
      [
        "Ġbe",
        "en"
      ],
      [
        "Ġyou",
        "r"
      ],
      [
        "Ġse",
        "e"
      ],
      [
        "b",
        "e"
      ],
      [
        "i",
        "g"
      ],
      [
        "i",
        "z"
      ],
      [
        "Ġw",
        "ould"
      ],
      [
        "ha",
        "p"
      ],
      [
        "oo",
        "d"
      ],
      [
        "i",
        "v"
      ],
      [
        "p",
        "t"
      ],
      [
        "w",
        "ay"
      ],
      [
        "id",
        "e"
      ],
      [
        "H",
        "e"
      ],
      [
        "Ġ",
        "-"
      ],
      [
        "Ġs",
        "ome"
      ],
      [
        "Ġm",
        "ore"
      ],
      [
        "a",
        "ge"
      ],
      [
        "a",
        "ck"
      ],
      [
        "i",
        "re"
      ],
      [
        "Ġm",
        "ust"
      ],
      [
        "as",
        "s"
      ],
      [
        "Ġth",
        "ing"
      ],
      [
        "ri",
        "ed"
      ],
      [
        "ul",
        "t"
      ],
      [
        "a",
        "c"
      ],
      [
        "p",
        "o"
      ],
      [
        "p",
        "ar"
      ],
      [
        "Ġ",
        "["
      ],
      [
        "in",
        "e"
      ],
      [
        "Ġl",
        "ook"
      ],
      [
        "Ġh",
        "ow"
      ],
      [
        "Ġu",
        "n"
      ],
      [
        "Ġ",
        "*"
      ],
      [
        "Ġw",
        "ay"
      ],
      [
        "Ġw",
        "ord"
      ],
      [
        "Ġc",
        "an"
      ],
      [
        "Ġth",
        "ink"
      ],
      [
        "(",
        "\""
      ],
      [
        "_",
        "_"
      ],
      [
        "n",
        "g"
      ],
      [
        "Ġt",
        "han"
      ],
      [
        "in",
        "t"
      ],
      [
        "Y",
        "ou"
      ],
      [
        "e",
        "ver"
      ],
      [
        "Ġ",
        "en"
      ],
      [
        "Ġthe",
        "ir"
      ],
      [
        "i",
        "e"
      ],
      [
        "u",
        "ch"
      ],
      [
        "ar",
        "s"
      ],
      [
        "Ġl",
        "o"
      ],
      [
        "Ġg",
        "reat"
      ],
      [
        "b",
        "le"
      ],
      [
        "i",
        "es"
      ],
      [
        "p",
        "l"
      ],
      [
        "Ġ",
        "3"
      ],
      [
        "Ġ",
        "\"\""
      ],
      [
        "Ġa",
        "f"
      ],
      [
        "Ġs",
        "ha"
      ],
      [
        "er",
        "ge"
      ],
      [
        "Ġc",
        "ollection"
      ],
      [
        "Ġl",
        "ist"
      ],
      [
        "ĠA",
        "nd"
      ],
      [
        "ĠW",
        "hale"
      ],
      [
        "Ġup",
        "on"
      ],
      [
        "a",
        "ce"
      ],
      [
        "m",
        "ent"
      ],
      [
        "u",
        "e"
      ],
      [
        "Ġa",
        "r"
      ],
      [
        "Ġs",
        "ort"
      ],
      [
        "Ġthe",
        "n"
      ],
      [
        "ou",
        "ght"
      ],
      [
        "Ġre",
        "turn"
      ],
      [
        "ĠĠĠĠĠĠĠĠĠĠĠĠĠĠĠĠĠĠĠĠĠĠĠĠĠĠĠĠĠĠĠĠ",
        "ĠĠĠĠĠĠĠĠ"
      ],
      [
        "Ġtw",
        "o"
      ],
      [
        "Ġtim",
        "e"
      ],
      [
        "f",
        "ore"
      ],
      [
        "Ġ",
        "#"
      ],
      [
        "Ġa",
        "d"
      ],
      [
        "Ġit",
        "s"
      ],
      [
        "Ġher",
        "self"
      ],
      [
        "ĠL",
        "e"
      ],
      [
        "e",
        "x"
      ],
      [
        "w",
        "e"
      ],
      [
        "Ġ",
        ":"
      ],
      [
        "is",
        "s"
      ],
      [
        "Ġc",
        "ur"
      ],
      [
        "Ġre",
        "s"
      ],
      [
        "Ġag",
        "ain"
      ],
      [
        "a",
        "u"
      ],
      [
        "a",
        "re"
      ],
      [
        "v",
        "es"
      ],
      [
        "re",
        "n"
      ],
      [
        "ar",
        "y"
      ],
      [
        "all",
        "y"
      ],
      [
        "Ġsu",
        "ch"
      ],
      [
        "u",
        "d"
      ],
      [
        "Ġm",
        "ay"
      ],
      [
        "Ġg",
        "et"
      ],
      [
        "Ġr",
        "o"
      ],
      [
        "m",
        "an"
      ],
      [
        "w",
        "n"
      ],
      [
        "Ġ",
        "+"
      ],
      [
        "Ġm",
        "erge"
      ],
      [
        "ĠF",
        "ile"
      ],
      [
        "Ġsh",
        "ould"
      ],
      [
        "b",
        "it"
      ],
      [
        "m",
        "es"
      ],
      [
        "Ġ",
        "V"
      ],
      [
        "Ġs",
        "ay"
      ],
      [
        "at",
        "ed"
      ],
      [
        "Ġp",
        "ro"
      ],
      [
        "ol",
        "mes"
      ],
      [
        "n",
        "et"
      ],
      [
        "Ġw",
        "or"
      ],
      [
        "at",
        "er"
      ],
      [
        "ĠS",
        "t"
      ],
      [
        "Ġpre",
        "v"
      ],
      [
        "4",
        "0"
      ],
      [
        "h",
        "is"
      ],
      [
        "m",
        "ark"
      ],
      [
        "Ġ",
        "\""
      ],
      [
        "Ġo",
        "ver"
      ],
      [
        "re",
        "nt"
      ],
      [
        "nd",
        "er"
      ],
      [
        "ĠĠĠĠĠĠĠĠ",
        "ĠĠĠ"
      ],
      [
        "Ġp",
        "l"
      ],
      [
        "Ġp",
        "r"
      ],
      [
        "Ġha",
        "nd"
      ],
      [
        "Ġse",
        "cond"
      ],
      [
        "ad",
        "y"
      ],
      [
        "ĠN",
        "ot"
      ],
      [
        "iz",
        "ed"
      ],
      [
        "e",
        "ll"
      ],
      [
        "f",
        "t"
      ],
      [
        "i",
        "p"
      ],
      [
        "t",
        "im"
      ],
      [
        "âĢ",
        "ĺ"
      ],
      [
        "ou",
        "nt"
      ],
      [
        "Ġm",
        "uch"
      ],
      [
        "Ġc",
        "h"
      ],
      [
        "Ġto",
        "o"
      ],
      [
        "Ġd",
        "id"
      ],
      [
        "Ġp",
        "er"
      ],
      [
        "Ġn",
        "ow"
      ],
      [
        "Ġr",
        "ight"
      ],
      [
        "ĠB",
        "en"
      ],
      [
        "ĠH",
        "e"
      ],
      [
        "p",
        "ut"
      ],
      [
        "t",
        "ain"
      ],
      [
        "re",
        "e"
      ],
      [
        "Ġbe",
        "t"
      ],
      [
        "Ġle",
        "n"
      ],
      [
        "Ġim",
        "p"
      ],
      [
        "o",
        "ll"
      ],
      [
        "Ġ",
        "J"
      ],
      [
        "Ġt",
        "r"
      ],
      [
        "Ġof",
        "f"
      ],
      [
        "Ġu",
        "s"
      ],
      [
        "Ġ\"\"",
        "\""
      ],
      [
        "Ġprev",
        "ious"
      ],
      [
        "e",
        "p"
      ],
      [
        "f",
        "irst"
      ],
      [
        "n",
        "ess"
      ],
      [
        "t",
        "hat"
      ],
      [
        "t",
        "ions"
      ],
      [
        "Ġ",
        "4"
      ],
      [
        "Ġo",
        "wn"
      ],
      [
        "is",
        "e"
      ],
      [
        "or",
        "y"
      ],
      [
        "at",
        "her"
      ],
      [
        "Ġp",
        "art"
      ],
      [
        "se",
        "cond"
      ],
      [
        "Ġbe",
        "g"
      ],
      [
        "Ġth",
        "ought"
      ],
      [
        "ĠH",
        "olmes"
      ],
      [
        "a",
        "p"
      ],
      [
        "t",
        "ing"
      ],
      [
        "Ġs",
        "m"
      ],
      [
        "Ġc",
        "ha"
      ],
      [
        "40",
        "4"
      ],
      [
        "\"",
        ","
      ],
      [
        ".",
        "_"
      ],
      [
        "Ġa",
        "c"
      ],
      [
        "en",
        "se"
      ],
      [
        "Ġm",
        "ost"
      ],
      [
        "Ġhe",
        "re"
      ],
      [
        "Ġse",
        "em"
      ],
      [
        "Ġde",
        "ar"
      ],
      [
        "ĠF",
        "ound"
      ],
      [
        "op",
        "tim"
      ],
      [
        "optim",
        "ized"
      ],
      [
        "-",
        "-"
      ],
      [
        "g",
        "ed"
      ],
      [
        "o",
        "g"
      ],
      [
        "o",
        "se"
      ],
      [
        "Ġ",
        "5"
      ],
      [
        "re",
        "ss"
      ],
      [
        "Ġm",
        "in"
      ],
      [
        "Ġd",
        "istance"
      ],
      [
        "Ġl",
        "ar"
      ],
      [
        "Ġbe",
        "fore"
      ],
      [
        "ad",
        "ing"
      ],
      [
        "ĠM",
        "iss"
      ],
      [
        "ĠB",
        "ut"
      ],
      [
        "Ġst",
        "r"
      ],
      [
        "Ġqu",
        "ite"
      ],
      [
        "ĠBen",
        "net"
      ],
      [
        "b",
        "ook"
      ],
      [
        "l",
        "ing"
      ],
      [
        "s",
        "he"
      ],
      [
        "on",
        "s"
      ],
      [
        "Ġb",
        "l"
      ],
      [
        "ing",
        "le"
      ],
      [
        "Ġl",
        "ong"
      ],
      [
        "Ġe",
        "very"
      ],
      [
        "al",
        "k"
      ],
      [
        "Ġu",
        "nder"
      ],
      [
        "Ġse",
        "a"
      ],
      [
        "ad",
        "e"
      ],
      [
        "if",
        "e"
      ],
      [
        "ra",
        "ct"
      ],
      [
        "Ġj",
        "ust"
      ],
      [
        "hap",
        "ter"
      ],
      [
        "I",
        "t"
      ],
      [
        "c",
        "i"
      ],
      [
        "e",
        "ct"
      ],
      [
        "Ġm",
        "ight"
      ],
      [
        "Ġb",
        "r"
      ],
      [
        "at",
        "ter"
      ],
      [
        "ot",
        "her"
      ],
      [
        "ĠA",
        "d"
      ],
      [
        "ĠA",
        "ust"
      ],
      [
        "Ġon",
        "ce"
      ],
      [
        "ĠS",
        "he"
      ],
      [
        "ab",
        "bit"
      ],
      [
        "par",
        "am"
      ],
      [
        "a",
        "ch"
      ],
      [
        "f",
        "or"
      ],
      [
        "h",
        "y"
      ],
      [
        "n",
        "ing"
      ],
      [
        "Ġ",
        "âĢĺ"
      ],
      [
        "Ġc",
        "ome"
      ],
      [
        "st",
        "r"
      ],
      [
        "Ġd",
        "if"
      ],
      [
        "ĠĠĠĠĠĠĠĠĠĠĠĠĠĠĠĠ",
        "ĠĠĠĠĠĠĠĠ"
      ],
      [
        "Ġg",
        "r"
      ],
      [
        "Ġg",
        "ood"
      ],
      [
        "Ġbe",
        "ing"
      ],
      [
        "Ġe",
        "y"
      ],
      [
        "ĠC",
        "hapter"
      ],
      [
        "Ġdo",
        "or"
      ],
      [
        "ond",
        "er"
      ],
      [
        "Ġ=",
        "="
      ],
      [
        "Ġqu",
        "ick"
      ],
      [
        "Ġne",
        "ver"
      ],
      [
        "He",
        "ading"
      ],
      [
        "ĠAust",
        "en"
      ],
      [
        ".",
        "."
      ],
      [
        "B",
        "ut"
      ],
      [
        "a",
        "il"
      ],
      [
        "c",
        "he"
      ],
      [
        "c",
        "om"
      ],
      [
        "n",
        "e"
      ],
      [
        "u",
        "p"
      ],
      [
        "u",
        "ll"
      ],
      [
        "u",
        "ck"
      ],
      [
        "Ġ",
        "ent"
      ],
      [
        "er",
        "tain"
      ],
      [
        "Ġd",
        "is"
      ],
      [
        "Ġp",
        "a"
      ],
      [
        "om",
        "et"
      ],
      [
        "Ġaf",
        "ter"
      ],
      [
        "A",
        "nd"
      ],
      [
        "i",
        "gh"
      ],
      [
        "o",
        "ld"
      ],
      [
        "u",
        "b"
      ],
      [
        "v",
        "ing"
      ],
      [
        "y",
        "ou"
      ],
      [
        "Ġ",
        "0"
      ],
      [
        "Ġ",
        "X"
      ],
      [
        "he",
        "n"
      ],
      [
        "Ġw",
        "ent"
      ],
      [
        "le",
        "ss"
      ],
      [
        "Ġf",
        "ind"
      ],
      [
        "Ġin",
        "te"
      ],
      [
        "at",
        "s"
      ],
      [
        "Ġha",
        "r"
      ],
      [
        "Ġha",
        "lf"
      ],
      [
        "Ġon",
        "ly"
      ],
      [
        "Ġnot",
        "hing"
      ],
      [
        "ĠThe",
        "re"
      ],
      [
        "pe",
        "ct"
      ],
      [
        "th",
        "on"
      ],
      [
        "Ġsu",
        "b"
      ],
      [
        "iv",
        "ot"
      ],
      [
        "Ġcur",
        "rent"
      ],
      [
        "Ġres",
        "ult"
      ],
      [
        "f",
        "ul"
      ],
      [
        "j",
        "ect"
      ],
      [
        "m",
        "ost"
      ],
      [
        "n",
        "ot"
      ],
      [
        "w",
        "s"
      ],
      [
        "Ġt",
        "ake"
      ],
      [
        "Ġs",
        "p"
      ],
      [
        "Ġo",
        "b"
      ],
      [
        "re",
        "et"
      ],
      [
        "Ġm",
        "ake"
      ],
      [
        "Ġm",
        "ade"
      ],
      [
        "Ġc",
        "ame"
      ],
      [
        "ing",
        "s"
      ],
      [
        "an",
        "s"
      ],
      [
        "Ġg",
        "l"
      ],
      [
        "Ġy",
        "e"
      ],
      [
        "Ġr",
        "ound"
      ],
      [
        "oo",
        "l"
      ],
      [
        "ĠM",
        "ouse"
      ],
      [
        "Ġle",
        "ss"
      ],
      [
        "ure",
        "s"
      ],
      [
        "Ġsha",
        "ll"
      ],
      [
        "T",
        "his"
      ],
      [
        "c",
        "y"
      ],
      [
        "s",
        "o"
      ],
      [
        "w",
        "as"
      ],
      [
        "he",
        "re"
      ],
      [
        "Ġb",
        "ack"
      ],
      [
        "Ġf",
        "un"
      ],
      [
        "at",
        "ch"
      ],
      [
        "Ġp",
        "e"
      ],
      [
        "Ġhe",
        "ad"
      ],
      [
        "Ġhe",
        "ard"
      ],
      [
        "Ġe",
        "ver"
      ],
      [
        "Ġr",
        "un"
      ],
      [
        "li",
        "ght"
      ],
      [
        "Ġwe",
        "ll"
      ],
      [
        "Ġv",
        "o"
      ],
      [
        "Ġcom",
        "m"
      ],
      [
        "Ġcon",
        "s"
      ],
      [
        "Ġimp",
        "ort"
      ],
      [
        "]",
        ")"
      ],
      [
        "c",
        "ollection"
      ],
      [
        "i",
        "ly"
      ],
      [
        "o",
        "pe"
      ],
      [
        "p",
        "en"
      ],
      [
        "Ġs",
        "w"
      ],
      [
        "Ġs",
        "ame"
      ],
      [
        "Ġo",
        "ur"
      ],
      [
        "Ġw",
        "ind"
      ],
      [
        "le",
        "n"
      ],
      [
        "is",
        "it"
      ],
      [
        "Ġf",
        "ound"
      ],
      [
        "Ġp",
        "ivot"
      ],
      [
        "se",
        "s"
      ],
      [
        "Ġh",
        "ouse"
      ],
      [
        "Ġit",
        "em"
      ],
      [
        "et",
        "h"
      ],
      [
        "Ġe",
        "ven"
      ],
      [
        "ent",
        "ly"
      ],
      [
        "th",
        "ing"
      ],
      [
        "Ġso",
        "on"
      ],
      [
        "ak",
        "ing"
      ],
      [
        "ĠLe",
        "venshtein"
      ],
      [
        "Ġlar",
        "ge"
      ],
      [
        "Ġdif",
        "fe"
      ],
      [
        "a",
        "le"
      ],
      [
        "b",
        "ut"
      ],
      [
        "c",
        "on"
      ],
      [
        "e",
        "nd"
      ],
      [
        "p",
        "h"
      ],
      [
        "w",
        "ard"
      ],
      [
        "Ġa",
        "p"
      ],
      [
        "ĠĠĠĠ",
        "ĠĠ"
      ],
      [
        "Ġo",
        "ld"
      ],
      [
        "Ġw",
        "a"
      ],
      [
        "en",
        "ce"
      ],
      [
        "Ġg",
        "en"
      ],
      [
        "Ġwith",
        "out"
      ],
      [
        "Ġsa",
        "w"
      ],
      [
        "hap",
        "s"
      ],
      [
        "Ġthing",
        "s"
      ],
      [
        "I",
        "I"
      ],
      [
        "i",
        "b"
      ],
      [
        "r",
        "ough"
      ],
      [
        "Ġ",
        "K"
      ],
      [
        "Ġ",
        "You"
      ],
      [
        "Ġs",
        "pe"
      ],
      [
        "Ġs",
        "ure"
      ],
      [
        "Ġs",
        "omet"
      ],
      [
        "it",
        "her"
      ],
      [
        "Ġm",
        "ar"
      ],
      [
        "Ġc",
        "l"
      ],
      [
        "Ġin",
        "de"
      ],
      [
        "Ġp",
        "ut"
      ],
      [
        "om",
        "ent"
      ],
      [
        "Ġe",
        "l"
      ],
      [
        "Ġre",
        "m"
      ],
      [
        "Ġne",
        "ar"
      ],
      [
        "ĠR",
        "abbit"
      ],
      [
        "way",
        "s"
      ],
      [
        "Ġword",
        "s"
      ],
      [
        "Ġpr",
        "int"
      ],
      [
        "Ġey",
        "es"
      ],
      [
        "Ġvo",
        "ice"
      ],
      [
        "a",
        "h"
      ],
      [
        "a",
        "se"
      ],
      [
        "a",
        "id"
      ],
      [
        "c",
        "l"
      ],
      [
        "f",
        "f"
      ],
      [
        "o",
        "s"
      ],
      [
        "o",
        "y"
      ],
      [
        "p",
        "s"
      ],
      [
        "r",
        "ation"
      ],
      [
        "v",
        "ed"
      ],
      [
        "x",
        "t"
      ],
      [
        "Ġs",
        "c"
      ],
      [
        "le",
        "venshtein"
      ],
      [
        "Ġc",
        "ried"
      ],
      [
        "Ġin",
        "put"
      ],
      [
        "Ġd",
        "ay"
      ],
      [
        "Ġp",
        "ass"
      ],
      [
        "Ġn",
        "um"
      ],
      [
        "Ġe",
        "ar"
      ],
      [
        "ct",
        "est"
      ],
      [
        "Ġu",
        "ser"
      ],
      [
        "ch",
        "mark"
      ],
      [
        "Ġwh",
        "ile"
      ],
      [
        "ri",
        "ght"
      ],
      [
        "Ġdo",
        "ctest"
      ],
      [
        "Ġ1",
        "0"
      ],
      [
        "ig",
        "n"
      ],
      [
        "Ġwor",
        "ld"
      ],
      [
        "a",
        "ct"
      ],
      [
        "f",
        "rom"
      ],
      [
        "i",
        "a"
      ],
      [
        "i",
        "ble"
      ],
      [
        "r",
        "an"
      ],
      [
        "v",
        "ent"
      ],
      [
        "Ġthe",
        "se"
      ],
      [
        "Ġw",
        "om"
      ],
      [
        "Ġw",
        "ater"
      ],
      [
        "it",
        "ed"
      ],
      [
        "is",
        "hed"
      ],
      [
        "Ġm",
        "en"
      ],
      [
        "Ġm",
        "oment"
      ],
      [
        "Ġd",
        "ou"
      ],
      [
        "Ġd",
        "es"
      ],
      [
        "Ġg",
        "row"
      ],
      [
        "ic",
        "al"
      ],
      [
        "Ġth",
        "ough"
      ],
      [
        "te",
        "nd"
      ],
      [
        "Ġle",
        "ft"
      ],
      [
        "ust",
        "ration"
      ],
      [
        "ĠMr",
        "s"
      ],
      [
        "Ġro",
        "om"
      ],
      [
        "Ġmin",
        "ut"
      ],
      [
        "Ġhar",
        "d"
      ],
      [
        "Ġap",
        "pe"
      ],
      [
        "A",
        "lice"
      ],
      [
        "a",
        "v"
      ],
      [
        "b",
        "t"
      ],
      [
        "b",
        "y"
      ],
      [
        "g",
        "er"
      ],
      [
        "g",
        "et"
      ],
      [
        "h",
        "or"
      ],
      [
        "l",
        "ish"
      ],
      [
        "m",
        "e"
      ],
      [
        "m",
        "y"
      ],
      [
        "m",
        "ed"
      ],
      [
        "n",
        "er"
      ],
      [
        "n",
        "ame"
      ],
      [
        "Ġo",
        "pen"
      ],
      [
        "re",
        "st"
      ],
      [
        "Ġw",
        "onder"
      ],
      [
        "on",
        "t"
      ],
      [
        "Ġf",
        "an"
      ],
      [
        "ll",
        "ustration"
      ],
      [
        "an",
        "e"
      ],
      [
        "ot",
        "t"
      ],
      [
        "Ġh",
        "ur"
      ],
      [
        "ic",
        "t"
      ],
      [
        "Ġth",
        "ose"
      ],
      [
        "ver",
        "s"
      ],
      [
        "Ġu",
        "se"
      ],
      [
        "ro",
        "om"
      ],
      [
        "Ġdo",
        "es"
      ],
      [
        "Ġwhe",
        "re"
      ],
      [
        "Ġv",
        "isit"
      ],
      [
        "Ġal",
        "most"
      ],
      [
        "el",
        "t"
      ],
      [
        "Ġfe",
        "et"
      ],
      [
        "Ġlook",
        "ed"
      ],
      [
        "Ġen",
        "ough"
      ],
      [
        "we",
        "en"
      ],
      [
        "ren",
        "ce"
      ],
      [
        "Ġbet",
        "ween"
      ],
      [
        "og",
        "ra"
      ],
      [
        "ingle",
        "y"
      ],
      [
        "(",
        "["
      ],
      [
        ")",
        ")"
      ],
      [
        ")",
        ":"
      ],
      [
        "H",
        "ow"
      ],
      [
        "O",
        "h"
      ],
      [
        "W",
        "hat"
      ],
      [
        "d",
        "en"
      ],
      [
        "i",
        "x"
      ],
      [
        "l",
        "and"
      ],
      [
        "Ġ",
        "<"
      ],
      [
        "Ġ",
        "ke"
      ],
      [
        "Ġt",
        "ry"
      ],
      [
        "Ġt",
        "ell"
      ],
      [
        "Ġa",
        "way"
      ],
      [
        "Ġs",
        "et"
      ],
      [
        "it",
        "ut"
      ],
      [
        "it",
        "ion"
      ],
      [
        "le",
        "s"
      ],
      [
        "Ġm",
        "atter"
      ],
      [
        "Ġb",
        "o"
      ],
      [
        "Ġb",
        "en"
      ],
      [
        "Ġc",
        "o"
      ],
      [
        "Ġc",
        "han"
      ],
      [
        "Ġc",
        "ertain"
      ],
      [
        "st",
        "er"
      ],
      [
        "st",
        "itut"
      ],
      [
        "Ġp",
        "ers"
      ],
      [
        "as",
        "ure"
      ],
      [
        "al",
        "led"
      ],
      [
        "The",
        "n"
      ],
      [
        "Ġr",
        "ather"
      ],
      [
        "Ġse",
        "en"
      ],
      [
        "Ġan",
        "other"
      ],
      [
        "ain",
        "t"
      ],
      [
        "Ġst",
        "ill"
      ],
      [
        "Ġcom",
        "p"
      ],
      [
        "Ġpo",
        "or"
      ],
      [
        "Ġca",
        "se"
      ],
      [
        "Ġ-",
        ">"
      ],
      [
        "Ġlo",
        "ve"
      ],
      [
        "Ġper",
        "haps"
      ],
      [
        "Ġbet",
        "ter"
      ],
      [
        "oll",
        "ow"
      ],
      [
        "Ġbeg",
        "an"
      ],
      [
        "Ġsm",
        "all"
      ],
      [
        "ull",
        "y"
      ],
      [
        "Ġfun",
        "ction"
      ],
      [
        "Ġwind",
        "ow"
      ],
      [
        "Ġgen",
        "er"
      ],
      [
        ")",
        ","
      ],
      [
        "I",
        "n"
      ],
      [
        "h",
        "o"
      ],
      [
        "i",
        "at"
      ],
      [
        "i",
        "ld"
      ],
      [
        "l",
        "s"
      ],
      [
        "m",
        "er"
      ],
      [
        "p",
        "ro"
      ],
      [
        "Ġt",
        "e"
      ],
      [
        "Ġw",
        "ish"
      ],
      [
        "Ġin",
        "t"
      ],
      [
        "Ġl",
        "ast"
      ],
      [
        "Ġh",
        "igh"
      ],
      [
        "Ġg",
        "ot"
      ],
      [
        "Ġg",
        "ive"
      ],
      [
        "Ġe",
        "le"
      ],
      [
        "Ġth",
        "rough"
      ],
      [
        "The",
        "re"
      ],
      [
        "Ġre",
        "mark"
      ],
      [
        "Ġas",
        "k"
      ],
      [
        "ĠThe",
        "y"
      ],
      [
        "ĠB",
        "ingley"
      ],
      [
        "Ġ1",
        "8"
      ],
      [
        "ĠE",
        "ng"
      ],
      [
        "Ġfe",
        "el"
      ],
      [
        "ber",
        "g"
      ],
      [
        "Ġdiffe",
        "rence"
      ],
      [
        "Ġinde",
        "ed"
      ],
      [
        "Ġel",
        "se"
      ],
      [
        "I",
        "llustration"
      ],
      [
        "a",
        "ir"
      ],
      [
        "c",
        "ha"
      ],
      [
        "d",
        "er"
      ],
      [
        "e",
        "w"
      ],
      [
        "n",
        "ter"
      ],
      [
        "o",
        "ve"
      ],
      [
        "u",
        "c"
      ],
      [
        "u",
        "ght"
      ],
      [
        "in",
        "s"
      ],
      [
        "Ġs",
        "ur"
      ],
      [
        "re",
        "t"
      ],
      [
        "re",
        "turn"
      ],
      [
        "Ġf",
        "l"
      ],
      [
        "Ġf",
        "ire"
      ],
      [
        "Ġf",
        "ollow"
      ],
      [
        "Ġn",
        "at"
      ],
      [
        "se",
        "l"
      ],
      [
        "Ġha",
        "pp"
      ],
      [
        "Ġg",
        "u"
      ],
      [
        "te",
        "st"
      ],
      [
        "if",
        "t"
      ],
      [
        "Ġle",
        "t"
      ],
      [
        "Ġan",
        "im"
      ],
      [
        "ul",
        "ar"
      ],
      [
        "Ġwhe",
        "ther"
      ],
      [
        "Ġqu",
        "est"
      ],
      [
        "de",
        "f"
      ],
      [
        "fe",
        "ct"
      ],
      [
        "ie",
        "ld"
      ],
      [
        "Ġinte",
        "rest"
      ],
      [
        "Ġsub",
        "stitut"
      ],
      [
        "Ġwom",
        "an"
      ],
      [
        "Ġdou",
        "bt"
      ],
      [
        "ogra",
        "ph"
      ],
      [
        "(",
        ")"
      ],
      [
        "M",
        "r"
      ],
      [
        "a",
        "ut"
      ],
      [
        "c",
        "c"
      ],
      [
        "i",
        "an"
      ],
      [
        "w",
        "ith"
      ],
      [
        "Ġ",
        "6"
      ],
      [
        "Ġ",
        "8"
      ],
      [
        "Ġ",
        "U"
      ],
      [
        "Ġt",
        "urn"
      ],
      [
        "he",
        "s"
      ],
      [
        "Ġs",
        "at"
      ],
      [
        "Ġs",
        "ide"
      ],
      [
        "re",
        "s"
      ],
      [
        "ou",
        "th"
      ],
      [
        "le",
        "tions"
      ],
      [
        "le",
        "ase"
      ],
      [
        "en",
        "ed"
      ],
      [
        "Ġc",
        "our"
      ],
      [
        "Ġf",
        "elt"
      ],
      [
        "an",
        "g"
      ],
      [
        "Ġp",
        "h"
      ],
      [
        "ĠI",
        "n"
      ],
      [
        "Ġe",
        "nd"
      ],
      [
        "Ġy",
        "et"
      ],
      [
        "Ġth",
        "ree"
      ],
      [
        "ĠA",
        "s"
      ],
      [
        "li",
        "ed"
      ],
      [
        "ĠC",
        "om"
      ],
      [
        "ri",
        "end"
      ],
      [
        "Ġat",
        "t"
      ],
      [
        "ck",
        "et"
      ],
      [
        "Ġde",
        "letions"
      ],
      [
        "Ġ_",
        "_"
      ],
      [
        "ind",
        "ex"
      ],
      [
        "Ġk",
        "ind"
      ],
      [
        "ĠĠĠĠĠĠĠĠĠĠĠĠĠĠĠĠĠĠĠĠĠĠĠĠĠĠĠĠĠĠĠĠ",
        "ĠĠĠĠĠĠĠĠĠĠĠĠĠĠĠĠ"
      ],
      [
        "Ġal",
        "ways"
      ],
      [
        "ĠE",
        "x"
      ],
      [
        "py",
        "thon"
      ],
      [
        "sort",
        "ed"
      ],
      [
        "od",
        "y"
      ],
      [
        "Ġman",
        "y"
      ],
      [
        "per",
        "m"
      ],
      [
        "Ġwhale",
        "s"
      ],
      [
        "ser",
        "tions"
      ],
      [
        "Ġad",
        "d"
      ],
      [
        "Ġtoo",
        "k"
      ],
      [
        "Ġsomet",
        "hing"
      ],
      [
        "ran",
        "ge"
      ],
      [
        "Ġminut",
        "es"
      ],
      [
        "Ġben",
        "chmark"
      ],
      [
        "Ġele",
        "ment"
      ],
      [
        "Ġsubstitut",
        "ions"
      ],
      [
        "F",
        "or"
      ],
      [
        "a",
        "ve"
      ],
      [
        "f",
        "ully"
      ],
      [
        "h",
        "ich"
      ],
      [
        "n",
        "ow"
      ],
      [
        "o",
        "ck"
      ],
      [
        "r",
        "it"
      ],
      [
        "u",
        "nd"
      ],
      [
        "Ġ",
        "9"
      ],
      [
        "Ġt",
        "ill"
      ],
      [
        "Ġa",
        "ir"
      ],
      [
        "in",
        "ed"
      ],
      [
        "in",
        "ah"
      ],
      [
        "Ġs",
        "ense"
      ],
      [
        "Ġw",
        "ant"
      ],
      [
        "er",
        "ate"
      ],
      [
        "en",
        "s"
      ],
      [
        "en",
        "berg"
      ],
      [
        "Ġm",
        "or"
      ],
      [
        "Ġm",
        "ind"
      ],
      [
        "Ġc",
        "alled"
      ],
      [
        "Ġf",
        "in"
      ],
      [
        "Ġf",
        "our"
      ],
      [
        "ar",
        "ing"
      ],
      [
        "at",
        "h"
      ],
      [
        "at",
        "es"
      ],
      [
        "ce",
        "pt"
      ],
      [
        "Ġl",
        "and"
      ],
      [
        "Ġl",
        "ife"
      ],
      [
        "ut",
        "hor"
      ],
      [
        "ut",
        "enberg"
      ],
      [
        "Ġg",
        "ir"
      ],
      [
        "Ġe",
        "m"
      ],
      [
        "Ġe",
        "at"
      ],
      [
        "Ġe",
        "ither"
      ],
      [
        "im",
        "es"
      ],
      [
        "Ġre",
        "p"
      ],
      [
        "ab",
        "ly"
      ],
      [
        "ro",
        "ss"
      ],
      [
        "Ġst",
        "reet"
      ],
      [
        "ss",
        "ible"
      ],
      [
        "Ġ1",
        "1"
      ],
      [
        "itt",
        "ing"
      ],
      [
        "Ġne",
        "xt"
      ],
      [
        "Ġfe",
        "w"
      ],
      [
        "lo",
        "ck"
      ],
      [
        "ple",
        "s"
      ],
      [
        "au",
        "ght"
      ],
      [
        "Ġwor",
        "k"
      ],
      [
        "Ġcha",
        "ract"
      ],
      [
        "Ġseem",
        "ed"
      ],
      [
        "Ġ==",
        "="
      ],
      [
        "Ġye",
        "ars"
      ],
      [
        "ĠEng",
        "lish"
      ],
      [
        "Ġcour",
        "se"
      ],
      [
        ".",
        "âĢĻ"
      ],
      [
        "4",
        "5"
      ],
      [
        "d",
        "s"
      ],
      [
        "i",
        "er"
      ],
      [
        "m",
        "ain"
      ],
      [
        "n",
        "ight"
      ],
      [
        "p",
        "r"
      ],
      [
        "p",
        "ill"
      ],
      [
        "u",
        "se"
      ],
      [
        "v",
        "iat"
      ],
      [
        "w",
        "hat"
      ],
      [
        "y",
        "ing"
      ],
      [
        "z",
        "ab"
      ],
      [
        "Ġ",
        "7"
      ],
      [
        "Ġt",
        "alk"
      ],
      [
        "re",
        "w"
      ],
      [
        "re",
        "ad"
      ],
      [
        "it",
        "s"
      ],
      [
        "Ġm",
        "ouse"
      ],
      [
        "Ġc",
        "le"
      ],
      [
        "Ġc",
        "ount"
      ],
      [
        "Ġf",
        "all"
      ],
      [
        "Ġf",
        "riend"
      ],
      [
        "st",
        "and"
      ],
      [
        "Ġin",
        "st"
      ],
      [
        "ar",
        "cy"
      ],
      [
        "Ġd",
        "on"
      ],
      [
        "an",
        "et"
      ],
      [
        "ĠI",
        "f"
      ],
      [
        "ot",
        "h"
      ],
      [
        "ot",
        "ograph"
      ],
      [
        "Ġh",
        "ope"
      ],
      [
        "Ġbe",
        "st"
      ],
      [
        "Ġbe",
        "aut"
      ],
      [
        "al",
        "ity"
      ],
      [
        "ĠA",
        "r"
      ],
      [
        "Ġyou",
        "ng"
      ],
      [
        "li",
        "zab"
      ],
      [
        "ĠS",
        "perm"
      ],
      [
        "Ġle",
        "ast"
      ],
      [
        "ri",
        "p"
      ],
      [
        "Ġme",
        "asure"
      ],
      [
        "ĠH",
        "ow"
      ],
      [
        "un",
        "c"
      ],
      [
        "row",
        "n"
      ],
      [
        "ĠP",
        "r"
      ],
      [
        "ĠP",
        "y"
      ],
      [
        "ĠP",
        "ro"
      ],
      [
        "ĠD",
        "o"
      ],
      [
        "ate",
        "ly"
      ],
      [
        "Ġcon",
        "t"
      ],
      [
        "od",
        "o"
      ],
      [
        "ious",
        "ly"
      ],
      [
        "Ġhim",
        "self"
      ],
      [
        "Ġany",
        "thing"
      ],
      [
        "Ġar",
        "m"
      ],
      [
        "ater",
        "pill"
      ],
      [
        "Ġhand",
        "s"
      ],
      [
        "ĠAd",
        "vent"
      ],
      [
        "Ġquest",
        "ion"
      ],
      [
        "viat",
        "han"
      ],
      [
        "lizab",
        "eth"
      ],
      [
        "aterpill",
        "ar"
      ],
      [
        "\"",
        "{"
      ],
      [
        "(",
        "\"\""
      ],
      [
        "*",
        "*"
      ],
      [
        ":",
        "\\"
      ],
      [
        "B",
        "ook"
      ],
      [
        "E",
        "nter"
      ],
      [
        "N",
        "o"
      ],
      [
        "S",
        "o"
      ],
      [
        "W",
        "e"
      ],
      [
        "a",
        "red"
      ],
      [
        "a",
        "ws"
      ],
      [
        "b",
        "ody"
      ],
      [
        "c",
        "hed"
      ],
      [
        "c",
        "ount"
      ],
      [
        "f",
        "unc"
      ],
      [
        "g",
        "or"
      ],
      [
        "l",
        "er"
      ],
      [
        "l",
        "ic"
      ],
      [
        "l",
        "ittle"
      ],
      [
        "u",
        "al"
      ],
      [
        "Ġa",
        "ct"
      ],
      [
        "in",
        "ce"
      ],
      [
        "in",
        "ess"
      ],
      [
        "in",
        "put"
      ],
      [
        "Ġs",
        "l"
      ],
      [
        "Ġs",
        "er"
      ],
      [
        "Ġs",
        "im"
      ],
      [
        "Ġs",
        "te"
      ],
      [
        "Ġo",
        "cc"
      ],
      [
        "Ġw",
        "alk"
      ],
      [
        "ou",
        "ch"
      ],
      [
        "it",
        "em"
      ],
      [
        "Ġm",
        "outh"
      ],
      [
        "Ġb",
        "ro"
      ],
      [
        "Ġb",
        "ook"
      ],
      [
        "Ġc",
        "r"
      ],
      [
        "Ġc",
        "he"
      ],
      [
        "Ġc",
        "lo"
      ],
      [
        "Ġf",
        "ace"
      ],
      [
        "st",
        "rip"
      ],
      [
        "ce",
        "an"
      ],
      [
        "Ġn",
        "ame"
      ],
      [
        "Ġh",
        "or"
      ],
      [
        "Ġbe",
        "c"
      ],
      [
        "al",
        "s"
      ],
      [
        "ur",
        "al"
      ],
      [
        "ith",
        "m"
      ],
      [
        "Ġr",
        "an"
      ],
      [
        "Ġr",
        "ow"
      ],
      [
        "Ġse",
        "c"
      ],
      [
        "Ġas",
        "s"
      ],
      [
        "Ġwh",
        "om"
      ],
      [
        "te",
        "m"
      ],
      [
        "am",
        "ples"
      ],
      [
        "ĠC",
        "HAPTER"
      ],
      [
        "ĠC",
        "aterpillar"
      ],
      [
        "Ġan",
        "s"
      ],
      [
        "ĠB",
        "r"
      ],
      [
        "ĠB",
        "ill"
      ],
      [
        "Ġme",
        "an"
      ],
      [
        "pe",
        "nd"
      ],
      [
        "ure",
        "d"
      ],
      [
        "Ġ1",
        "2"
      ],
      [
        "Ġor",
        "der"
      ],
      [
        "Ġde",
        "ep"
      ],
      [
        "ĠF",
        "or"
      ],
      [
        "\"\"",
        "\""
      ],
      [
        "Ġsh",
        "ip"
      ],
      [
        "Ġmy",
        "self"
      ],
      [
        "ĠD",
        "odo"
      ],
      [
        "ation",
        "s"
      ],
      [
        "um",
        "erate"
      ],
      [
        "Ġal",
        "gor"
      ],
      [
        "Ġex",
        "t"
      ],
      [
        "Ġgo",
        "ing"
      ],
      [
        "\")",
        "."
      ],
      [
        "ple",
        "ment"
      ],
      [
        "Ġam",
        "ong"
      ],
      [
        "Ġpo",
        "int"
      ],
      [
        "ĠO",
        "n"
      ],
      [
        "po",
        "s"
      ],
      [
        "Ġen",
        "umerate"
      ],
      [
        "pl",
        "anet"
      ],
      [
        "Ġ\"\"",
        ")"
      ],
      [
        "Ġar",
        "t"
      ],
      [
        "Ġsort",
        "ed"
      ],
      [
        "Ġad",
        "m"
      ],
      [
        "ĠLe",
        "viathan"
      ],
      [
        "che",
        "s"
      ],
      [
        "Ġob",
        "ser"
      ],
      [
        "ĠEx",
        "amples"
      ],
      [
        "ĠPy",
        "thon"
      ],
      [
        "(\"\"",
        ","
      ],
      [
        "Ġalgor",
        "ithm"
      ],
      [
        "plement",
        "ation"
      ],
      [
        "M",
        "y"
      ],
      [
        "N",
        "ot"
      ],
      [
        "O",
        "N"
      ],
      [
        "S",
        "he"
      ],
      [
        "c",
        "u"
      ],
      [
        "e",
        "red"
      ],
      [
        "f",
        "er"
      ],
      [
        "g",
        "s"
      ],
      [
        "h",
        "ind"
      ],
      [
        "i",
        "al"
      ],
      [
        "n",
        "o"
      ],
      [
        "o",
        "h"
      ],
      [
        "p",
        "it"
      ],
      [
        "s",
        "c"
      ],
      [
        "w",
        "here"
      ],
      [
        "Ġt",
        "able"
      ],
      [
        "he",
        "ad"
      ],
      [
        "Ġs",
        "le"
      ],
      [
        "Ġs",
        "po"
      ],
      [
        "Ġw",
        "r"
      ],
      [
        "er",
        "m"
      ],
      [
        "er",
        "man"
      ],
      [
        "ha",
        "r"
      ],
      [
        "is",
        "on"
      ],
      [
        "Ġm",
        "on"
      ],
      [
        "Ġf",
        "ive"
      ],
      [
        "Ġd",
        "ri"
      ],
      [
        "Ġd",
        "ro"
      ],
      [
        "an",
        "c"
      ],
      [
        "ce",
        "ss"
      ],
      [
        "Ġl",
        "ady"
      ],
      [
        "as",
        "on"
      ],
      [
        "Ġha",
        "ll"
      ],
      [
        "Ġh",
        "um"
      ],
      [
        "Ġg",
        "ard"
      ],
      [
        "id",
        "es"
      ],
      [
        "ent",
        "le"
      ],
      [
        "ur",
        "y"
      ],
      [
        "Ġre",
        "ally"
      ],
      [
        "ort",
        "h"
      ],
      [
        "ĠB",
        "o"
      ],
      [
        "qu",
        "ick"
      ],
      [
        "ĠW",
        "hat"
      ],
      [
        "ĠW",
        "hy"
      ],
      [
        "ĠW",
        "hen"
      ],
      [
        "ĠL",
        "et"
      ],
      [
        "ĠL",
        "ong"
      ],
      [
        "Ġde",
        "light"
      ],
      [
        "ast",
        "er"
      ],
      [
        "ile",
        "d"
      ],
      [
        "ĠD",
        "inah"
      ],
      [
        "ĠD",
        "arcy"
      ],
      [
        "ĠT",
        "o"
      ],
      [
        "op",
        "le"
      ],
      [
        "ĠE",
        "lizabeth"
      ],
      [
        "us",
        "hed"
      ],
      [
        "Ġwho",
        "le"
      ],
      [
        "ak",
        "en"
      ],
      [
        "Ġfe",
        "ll"
      ],
      [
        "pp",
        "ed"
      ],
      [
        "ag",
        "es"
      ],
      [
        "lo",
        "ves"
      ],
      [
        "Ġother",
        "s"
      ],
      [
        "Ġpo",
        "s"
      ],
      [
        "ire",
        "s"
      ],
      [
        "Ġlook",
        "ing"
      ],
      [
        "Ġhow",
        "ever"
      ],
      [
        "Ġagain",
        "st"
      ],
      [
        "au",
        "se"
      ],
      [
        "Ġpl",
        "ace"
      ],
      [
        "oll",
        "ins"
      ],
      [
        "ward",
        "s"
      ],
      [
        "ĠK",
        "ing"
      ],
      [
        "Ġnum",
        "ber"
      ],
      [
        "Ġhard",
        "ly"
      ],
      [
        "den",
        "ly"
      ],
      [
        "Ġpers",
        "on"
      ],
      [
        "Ġph",
        "otograph"
      ],
      [
        "Ġcharact",
        "er"
      ],
      [
        "Ġcount",
        "ry"
      ],
      [
        "Ġgard",
        "en"
      ],
      [
        "0",
        "0"
      ],
      [
        "C",
        "T"
      ],
      [
        "E",
        "N"
      ],
      [
        "H",
        "E"
      ],
      [
        "N",
        "ow"
      ],
      [
        "T",
        "o"
      ],
      [
        "W",
        "ell"
      ],
      [
        "a",
        "j"
      ],
      [
        "g",
        "l"
      ],
      [
        "h",
        "ow"
      ],
      [
        "i",
        "ed"
      ],
      [
        "k",
        "s"
      ],
      [
        "k",
        "en"
      ],
      [
        "k",
        "es"
      ],
      [
        "l",
        "p"
      ],
      [
        "n",
        "ce"
      ],
      [
        "o",
        "b"
      ],
      [
        "r",
        "ont"
      ],
      [
        "s",
        "m"
      ],
      [
        "t",
        "t"
      ],
      [
        "u",
        "ce"
      ],
      [
        "Ġ",
        "Y"
      ],
      [
        "Ġt",
        "ried"
      ],
      [
        "he",
        "m"
      ],
      [
        "Ġa",
        "pp"
      ],
      [
        "Ġa",
        "uthor"
      ],
      [
        "Ġo",
        "ught"
      ],
      [
        "re",
        "ady"
      ],
      [
        "Ġw",
        "on"
      ],
      [
        "Ġw",
        "ife"
      ],
      [
        "nd",
        "ed"
      ],
      [
        "er",
        "y"
      ],
      [
        "ha",
        "m"
      ],
      [
        "it",
        "u"
      ],
      [
        "le",
        "t"
      ],
      [
        "is",
        "ed"
      ],
      [
        "Ġb",
        "ott"
      ],
      [
        "Ġc",
        "ar"
      ],
      [
        "Ġc",
        "ats"
      ],
      [
        "Ġd",
        "ist"
      ],
      [
        "at",
        "ing"
      ],
      [
        "Ġp",
        "ure"
      ],
      [
        "Ġp",
        "rom"
      ],
      [
        "ce",
        "s"
      ],
      [
        "ow",
        "er"
      ],
      [
        "Ġhe",
        "art"
      ],
      [
        "ion",
        "y"
      ],
      [
        "Ġe",
        "ight"
      ],
      [
        "ic",
        "ular"
      ],
      [
        "id",
        "er"
      ],
      [
        "al",
        "le"
      ],
      [
        "ent",
        "y"
      ],
      [
        "Ġr",
        "u"
      ],
      [
        "Ġr",
        "and"
      ],
      [
        "Ġse",
        "par"
      ],
      [
        "Ġfor",
        "m"
      ],
      [
        "Ġnot",
        "e"
      ],
      [
        "Ġwh",
        "ite"
      ],
      [
        "ĠB",
        "e"
      ],
      [
        "ĠW",
        "e"
      ],
      [
        "ĠW",
        "h"
      ],
      [
        "ĠL",
        "od"
      ],
      [
        "Ġst",
        "and"
      ],
      [
        "Ġ1",
        "3"
      ],
      [
        "Ġor",
        "de"
      ],
      [
        "itt",
        "en"
      ],
      [
        "ĠP",
        "R"
      ],
      [
        "ĠP",
        "re"
      ],
      [
        "Ġkn",
        "ew"
      ],
      [
        "ant",
        "uck"
      ],
      [
        "ĠG",
        "od"
      ],
      [
        "ĠG",
        "utenberg"
      ],
      [
        "Ġpre",
        "s"
      ],
      [
        "Ġtim",
        "es"
      ],
      [
        "ac",
        "ed"
      ],
      [
        "Ġgreat",
        "er"
      ],
      [
        "pl",
        "ain"
      ],
      [
        "ĠĠĠĠĠĠĠĠĠĠĠĠĠĠĠĠĠĠĠĠĠĠĠĠĠĠĠĠĠĠĠĠĠĠĠĠĠĠĠĠ",
        "ĠĠĠĠĠ"
      ],
      [
        "ĠĠĠĠĠĠĠĠĠĠĠĠĠĠĠĠĠĠĠĠĠĠĠĠĠĠĠĠĠĠĠĠĠĠĠĠĠĠĠĠ",
        "ĠĠĠĠĠĠ"
      ],
      [
        "Ġad",
        "v"
      ],
      [
        "ex",
        "t"
      ],
      [
        "ren",
        "e"
      ],
      [
        "Ġget",
        "ting"
      ],
      [
        "ĠV",
        "oy"
      ],
      [
        "Ġpl",
        "ay"
      ],
      [
        "Ġseem",
        "s"
      ],
      [
        "ĠĠĠĠĠĠĠĠĠĠĠĠĠĠĠĠĠĠĠĠĠĠĠĠ",
        "ĠĠĠĠ"
      ],
      [
        "ĠX",
        "X"
      ],
      [
        "Ġpe",
        "ople"
      ],
      [
        "Ġcons",
        "ider"
      ],
      [
        "Ġwa",
        "it"
      ],
      [
        "Ġrem",
        "em"
      ],
      [
        "Ġcertain",
        "ly"
      ],
      [
        "Ġfollow",
        "ing"
      ],
      [
        "Ġmor",
        "ning"
      ],
      [
        "Ġrep",
        "lied"
      ],
      [
        "ĠPro",
        "ject"
      ],
      [
        "tem",
        "pt"
      ],
      [
        "ĠBr",
        "iony"
      ],
      [
        "ĠLod",
        "ge"
      ],
      [
        "Ġorde",
        "red"
      ],
      [
        "\"",
        ":"
      ],
      [
        ".",
        ")"
      ],
      [
        ".",
        "__"
      ],
      [
        "I",
        "f"
      ],
      [
        "O",
        "K"
      ],
      [
        "O",
        "OK"
      ],
      [
        "T",
        "hat"
      ],
      [
        "_",
        ","
      ],
      [
        "_",
        ".âĢĿ"
      ],
      [
        "a",
        "w"
      ],
      [
        "b",
        "ers"
      ],
      [
        "d",
        "o"
      ],
      [
        "e",
        "ch"
      ],
      [
        "f",
        "l"
      ],
      [
        "g",
        "ers"
      ],
      [
        "h",
        "ouse"
      ],
      [
        "i",
        "et"
      ],
      [
        "i",
        "am"
      ],
      [
        "l",
        "ist"
      ],
      [
        "m",
        "t"
      ],
      [
        "o",
        "ver"
      ],
      [
        "p",
        "op"
      ],
      [
        "p",
        "ass"
      ],
      [
        "r",
        "ink"
      ],
      [
        "t",
        "ed"
      ],
      [
        "v",
        "id"
      ],
      [
        "z",
        "y"
      ],
      [
        "Ġ",
        "Q"
      ],
      [
        "Ġ",
        "{"
      ],
      [
        "Ġ",
        "ide"
      ],
      [
        "Ġs",
        "ound"
      ],
      [
        "Ġs",
        "ingle"
      ],
      [
        "Ġs",
        "itting"
      ],
      [
        "Ġo",
        "cean"
      ],
      [
        "er",
        "ous"
      ],
      [
        "ou",
        "l"
      ],
      [
        "le",
        "ct"
      ],
      [
        "le",
        "ft"
      ],
      [
        "is",
        "m"
      ],
      [
        "Ġm",
        "ut"
      ],
      [
        "Ġm",
        "id"
      ],
      [
        "Ġb",
        "us"
      ],
      [
        "Ġc",
        "or"
      ],
      [
        "Ġc",
        "ab"
      ],
      [
        "Ġc",
        "ond"
      ],
      [
        "Ġc",
        "row"
      ],
      [
        "Ġc",
        "all"
      ],
      [
        "Ġc",
        "ry"
      ],
      [
        "Ġf",
        "re"
      ],
      [
        "Ġf",
        "ar"
      ],
      [
        "Ġf",
        "al"
      ],
      [
        "Ġf",
        "am"
      ],
      [
        "Ġf",
        "act"
      ],
      [
        "Ġin",
        "s"
      ],
      [
        "Ġin",
        "sertions"
      ],
      [
        "ar",
        "row"
      ],
      [
        "Ġd",
        "ark"
      ],
      [
        "Ġd",
        "aught"
      ],
      [
        "an",
        "y"
      ],
      [
        "Ġn",
        "ice"
      ],
      [
        "Ġl",
        "ad"
      ],
      [
        "Ġl",
        "au"
      ],
      [
        "Ġhe",
        "ar"
      ],
      [
        "Ġha",
        "ving"
      ],
      [
        "ut",
        "e"
      ],
      [
        "Ġh",
        "on"
      ],
      [
        "Ġh",
        "ome"
      ],
      [
        "Ġh",
        "und"
      ],
      [
        "Ġit",
        "self"
      ],
      [
        "Ġg",
        "loves"
      ],
      [
        "Ġe",
        "ach"
      ],
      [
        "ent",
        "s"
      ],
      [
        "ent",
        "ion"
      ],
      [
        "Ġre",
        "c"
      ],
      [
        "Ġre",
        "g"
      ],
      [
        "Ġre",
        "st"
      ],
      [
        "Ġre",
        "ad"
      ],
      [
        "Ġr",
        "a"
      ],
      [
        "ist",
        "ory"
      ],
      [
        "Ġfor",
        "t"
      ],
      [
        "li",
        "ar"
      ],
      [
        "ge",
        "st"
      ],
      [
        "ĠC",
        "h"
      ],
      [
        "Ġsa",
        "il"
      ],
      [
        "ĠH",
        "is"
      ],
      [
        "ra",
        "id"
      ],
      [
        "Ġsu",
        "d"
      ],
      [
        "ile",
        "s"
      ],
      [
        "op",
        "y"
      ],
      [
        "um",
        "p"
      ],
      [
        "um",
        "ber"
      ],
      [
        "Ġal",
        "ready"
      ],
      [
        "est",
        "y"
      ],
      [
        "us",
        "ed"
      ],
      [
        "Ġex",
        "p"
      ],
      [
        "ĠG",
        "et"
      ],
      [
        "Ġim",
        "plementation"
      ],
      [
        "ak",
        "es"
      ],
      [
        "ĠR",
        "ight"
      ],
      [
        "Ġtw",
        "enty"
      ],
      [
        "iz",
        "e"
      ],
      [
        "po",
        "ssible"
      ],
      [
        "Ġ[",
        "]"
      ],
      [
        "__",
        "\":"
      ],
      [
        "Ġlo",
        "c"
      ],
      [
        "Ġaf",
        "raid"
      ],
      [
        "Ġsha",
        "r"
      ],
      [
        "Ġtime",
        "it"
      ],
      [
        "Ġres",
        "pect"
      ],
      [
        "Ġ\"",
        "__"
      ],
      [
        "Ġch",
        "ild"
      ],
      [
        "Ġper",
        "fect"
      ],
      [
        "ĠJ",
        "ane"
      ],
      [
        "Ġcha",
        "r"
      ],
      [
        "ress",
        "ed"
      ],
      [
        "Ġunder",
        "stand"
      ],
      [
        "ne",
        "y"
      ],
      [
        "Ġgl",
        "ass"
      ],
      [
        "Ġless",
        "er"
      ],
      [
        "get",
        "her"
      ],
      [
        "Ġ<",
        "="
      ],
      [
        "Ġgener",
        "al"
      ],
      [
        "Ġnat",
        "ure"
      ],
      [
        "sel",
        "ves"
      ],
      [
        "ĠU",
        "n"
      ],
      [
        "ang",
        "u"
      ],
      [
        "Ġclo",
        "se"
      ],
      [
        "aj",
        "esty"
      ],
      [
        "Ġbott",
        "le"
      ],
      [
        "Ġsepar",
        "ated"
      ],
      [
        "antuck",
        "et"
      ],
      [
        "Ġhund",
        "red"
      ],
      [
        ",",
        "âĢĻ"
      ],
      [
        "A",
        "L"
      ],
      [
        "T",
        "h"
      ],
      [
        "W",
        "hy"
      ],
      [
        "c",
        "an"
      ],
      [
        "c",
        "ul"
      ],
      [
        "c",
        "ise"
      ],
      [
        "d",
        "ia"
      ],
      [
        "e",
        "k"
      ],
      [
        "e",
        "er"
      ],
      [
        "f",
        "in"
      ],
      [
        "f",
        "ic"
      ],
      [
        "f",
        "ort"
      ],
      [
        "f",
        "ter"
      ],
      [
        "i",
        "red"
      ],
      [
        "j",
        "ust"
      ],
      [
        "n",
        "y"
      ],
      [
        "n",
        "at"
      ],
      [
        "p",
        "ent"
      ],
      [
        "r",
        "am"
      ],
      [
        "s",
        "pl"
      ],
      [
        "t",
        "le"
      ],
      [
        "u",
        "ction"
      ],
      [
        "w",
        "ill"
      ],
      [
        "w",
        "hen"
      ],
      [
        "y",
        "dia"
      ],
      [
        "Ġ",
        "es"
      ],
      [
        "Ġt",
        "ri"
      ],
      [
        "Ġt",
        "one"
      ],
      [
        "Ġt",
        "aken"
      ],
      [
        "in",
        "ary"
      ],
      [
        "Ġs",
        "ir"
      ],
      [
        "Ġs",
        "ix"
      ],
      [
        "Ġs",
        "ince"
      ],
      [
        "re",
        "m"
      ],
      [
        "re",
        "am"
      ],
      [
        "Ġw",
        "atch"
      ],
      [
        "nd",
        "ing"
      ],
      [
        "ha",
        "ve"
      ],
      [
        "ha",
        "ling"
      ],
      [
        "ou",
        "d"
      ],
      [
        "en",
        "e"
      ],
      [
        "or",
        "s"
      ],
      [
        "Ġb",
        "it"
      ],
      [
        "Ġb",
        "oth"
      ],
      [
        "Ġf",
        "ront"
      ],
      [
        "Ġto",
        "ld"
      ],
      [
        "Ġin",
        "c"
      ],
      [
        "ar",
        "r"
      ],
      [
        "at",
        "i"
      ],
      [
        "Ġp",
        "le"
      ],
      [
        "Ġp",
        "ri"
      ],
      [
        "Ġp",
        "ool"
      ],
      [
        "ce",
        "iv"
      ],
      [
        "ĠI",
        "rene"
      ],
      [
        "Ġl",
        "ow"
      ],
      [
        "as",
        "h"
      ],
      [
        "Ġg",
        "entle"
      ],
      [
        "Ġbe",
        "hind"
      ],
      [
        "et",
        "s"
      ],
      [
        "Ġe",
        "qu"
      ],
      [
        "Ġe",
        "book"
      ],
      [
        "Ġe",
        "Book"
      ],
      [
        "im",
        "p"
      ],
      [
        "Ġth",
        "row"
      ],
      [
        "ver",
        "al"
      ],
      [
        "ĠA",
        "l"
      ],
      [
        "ĠA",
        "n"
      ],
      [
        "ĠA",
        "t"
      ],
      [
        "ur",
        "ing"
      ],
      [
        "ir",
        "ds"
      ],
      [
        "ch",
        "ool"
      ],
      [
        "oo",
        "f"
      ],
      [
        "ĠM",
        "ary"
      ],
      [
        "ĠM",
        "ajesty"
      ],
      [
        "her",
        "self"
      ],
      [
        "her",
        "lock"
      ],
      [
        "if",
        "ic"
      ],
      [
        "Ġle",
        "ad"
      ],
      [
        "ab",
        "el"
      ],
      [
        "ill",
        "iam"
      ],
      [
        "ter",
        "s"
      ],
      [
        "Ġme",
        "re"
      ],
      [
        "Ġme",
        "et"
      ],
      [
        "ĠL",
        "ond"
      ],
      [
        "Ġ1",
        "6"
      ],
      [
        "Ġde",
        "al"
      ],
      [
        "Ġde",
        "lic"
      ],
      [
        "th",
        "is"
      ],
      [
        "th",
        "ough"
      ],
      [
        "all",
        "ow"
      ],
      [
        "ound",
        "s"
      ],
      [
        "itt",
        "ed"
      ],
      [
        "ous",
        "and"
      ],
      [
        "ra",
        "ve"
      ],
      [
        "Ġsh",
        "ow"
      ],
      [
        "Ġsu",
        "pp"
      ],
      [
        "the",
        "m"
      ],
      [
        "ast",
        "e"
      ],
      [
        "ile",
        "nce"
      ],
      [
        "um",
        "b"
      ],
      [
        "Ġcom",
        "es"
      ],
      [
        "Ġcom",
        "par"
      ],
      [
        "Ġim",
        "med"
      ],
      [
        "Ġim",
        "possible"
      ],
      [
        "ak",
        "er"
      ],
      [
        "ag",
        "ed"
      ],
      [
        "ag",
        "ain"
      ],
      [
        "Ġgo",
        "ld"
      ],
      [
        "ĠO",
        "h"
      ],
      [
        "Ġca",
        "re"
      ],
      [
        "ie",
        "w"
      ],
      [
        "ĠWhale",
        "s"
      ],
      [
        "Ġpro",
        "b"
      ],
      [
        "ĠSt",
        "reet"
      ],
      [
        "ĠSt",
        "ates"
      ],
      [
        "Ġpart",
        "y"
      ],
      [
        "Ġbeg",
        "in"
      ],
      [
        "Ġac",
        "count"
      ],
      [
        "Ġlar",
        "ger"
      ],
      [
        "Ġbl",
        "ack"
      ],
      [
        "ĠAd",
        "ler"
      ],
      [
        "for",
        "m"
      ],
      [
        "..",
        ".."
      ],
      [
        "Ġpa",
        "ir"
      ],
      [
        "Ġsw",
        "im"
      ],
      [
        "Ġspe",
        "ak"
      ],
      [
        "Ġhur",
        "ried"
      ],
      [
        "Ġke",
        "y"
      ],
      [
        "Ġte",
        "ars"
      ],
      [
        "Ġremark",
        "ed"
      ],
      [
        "Ġask",
        "ed"
      ],
      [
        "Ġgir",
        "ls"
      ],
      [
        "Ġbec",
        "ause"
      ],
      [
        "ĠBo",
        "hem"
      ],
      [
        "Ġpres",
        "ent"
      ],
      [
        "Ġcor",
        "ner"
      ],
      [
        "Ġhon",
        "our"
      ],
      [
        "Ġloc",
        "ated"
      ],
      [
        "Ġshar",
        "p"
      ],
      [
        "ĠUn",
        "ited"
      ],
      [
        "fic",
        "ult"
      ],
      [
        "ĠLond",
        "on"
      ],
      [
        "Ġimmed",
        "i"
      ],
      [
        ")",
        "."
      ],
      [
        "9",
        "4"
      ],
      [
        "?",
        "âĢĶ"
      ],
      [
        "A",
        "s"
      ],
      [
        "D",
        "E"
      ],
      [
        "E",
        "CT"
      ],
      [
        "I",
        "C"
      ],
      [
        "I",
        "N"
      ],
      [
        "W",
        "hen"
      ],
      [
        "_",
        "âĢĿ"
      ],
      [
        "a",
        "x"
      ],
      [
        "b",
        "o"
      ],
      [
        "b",
        "ack"
      ],
      [
        "c",
        "a"
      ],
      [
        "c",
        "ar"
      ],
      [
        "d",
        "ed"
      ],
      [
        "d",
        "ay"
      ],
      [
        "e",
        "ed"
      ],
      [
        "e",
        "ve"
      ],
      [
        "f",
        "ord"
      ],
      [
        "g",
        "r"
      ],
      [
        "g",
        "y"
      ],
      [
        "g",
        "reat"
      ],
      [
        "j",
        "ud"
      ],
      [
        "k",
        "ing"
      ],
      [
        "k",
        "ed"
      ],
      [
        "l",
        "ook"
      ],
      [
        "m",
        "in"
      ],
      [
        "o",
        "ke"
      ],
      [
        "r",
        "u"
      ],
      [
        "s",
        "ome"
      ],
      [
        "u",
        "pp"
      ],
      [
        "v",
        "al"
      ],
      [
        "w",
        "ould"
      ],
      [
        "y",
        "ed"
      ],
      [
        "Ġ",
        "ill"
      ],
      [
        "Ġt",
        "ouch"
      ],
      [
        "Ġs",
        "ent"
      ],
      [
        "Ġs",
        "ad"
      ],
      [
        "Ġs",
        "ign"
      ],
      [
        "ha",
        "b"
      ],
      [
        "le",
        "nt"
      ],
      [
        "is",
        "hes"
      ],
      [
        "Ġm",
        "o"
      ],
      [
        "Ġm",
        "ist"
      ],
      [
        "Ġm",
        "ag"
      ],
      [
        "Ġm",
        "aking"
      ],
      [
        "Ġm",
        "iles"
      ],
      [
        "Ġb",
        "ad"
      ],
      [
        "Ġc",
        "at"
      ],
      [
        "Ġc",
        "reat"
      ],
      [
        "Ġc",
        "atch"
      ],
      [
        "Ġf",
        "ur"
      ],
      [
        "Ġf",
        "ail"
      ],
      [
        "Ġin",
        "cl"
      ],
      [
        "Ġd",
        "ry"
      ],
      [
        "Ġp",
        "ar"
      ],
      [
        "Ġp",
        "ur"
      ],
      [
        "Ġp",
        "up"
      ],
      [
        "ĠI",
        "nd"
      ],
      [
        "Ġn",
        "er"
      ],
      [
        "se",
        "ss"
      ],
      [
        "Ġl",
        "ate"
      ],
      [
        "Ġhe",
        "lp"
      ],
      [
        "as",
        "k"
      ],
      [
        "Ġha",
        "bit"
      ],
      [
        "Ġh",
        "old"
      ],
      [
        "Ġg",
        "i"
      ],
      [
        "Ġg",
        "one"
      ],
      [
        "Ġbe",
        "l"
      ],
      [
        "ic",
        "i"
      ],
      [
        "ic",
        "s"
      ],
      [
        "ic",
        "ed"
      ],
      [
        "im",
        "e"
      ],
      [
        "ur",
        "ch"
      ],
      [
        "Ġre",
        "ach"
      ],
      [
        "Ġre",
        "ason"
      ],
      [
        "Ġr",
        "ushed"
      ],
      [
        "Ġher",
        "o"
      ],
      [
        "ĠM",
        "e"
      ],
      [
        "li",
        "eve"
      ],
      [
        "ĠS",
        "w"
      ],
      [
        "ĠC",
        "ha"
      ],
      [
        "ĠC",
        "ar"
      ],
      [
        "ĠC",
        "all"
      ],
      [
        "ĠC",
        "ollins"
      ],
      [
        "ri",
        "age"
      ],
      [
        "ain",
        "s"
      ],
      [
        "ĠW",
        "haling"
      ],
      [
        "ĠW",
        "illiam"
      ],
      [
        "ĠL",
        "ady"
      ],
      [
        "ĠL",
        "ydia"
      ],
      [
        "Ġst",
        "ick"
      ],
      [
        "Ġhad",
        "n"
      ],
      [
        "Ġ1",
        "7"
      ],
      [
        "un",
        "e"
      ],
      [
        "Ġsh",
        "ore"
      ],
      [
        "ĠD",
        "e"
      ],
      [
        "Ġqu",
        "ar"
      ],
      [
        "ĠT",
        "h"
      ],
      [
        "ĠT",
        "r"
      ],
      [
        "ĠT",
        "hat"
      ],
      [
        "ĠT",
        "HE"
      ],
      [
        "il",
        "led"
      ],
      [
        "ĠN",
        "antucket"
      ],
      [
        "Ġkn",
        "own"
      ],
      [
        "Ġcom",
        "ing"
      ],
      [
        "Ġcom",
        "ple"
      ],
      [
        "el",
        "s"
      ],
      [
        "ant",
        "ic"
      ],
      [
        "Ġex",
        "plain"
      ],
      [
        "ag",
        "er"
      ],
      [
        "Ġlike",
        "ly"
      ],
      [
        "ive",
        "ly"
      ],
      [
        "be",
        "fore"
      ],
      [
        "Ġreturn",
        "ed"
      ],
      [
        "ĠĠĠĠĠĠĠĠĠĠĠĠĠĠĠĠĠĠĠĠĠĠĠĠĠĠĠĠĠĠĠĠĠĠĠĠĠĠĠĠ",
        "ĠĠĠĠ"
      ],
      [
        "ĠĠĠĠĠĠĠĠĠĠĠĠĠĠĠĠĠĠĠĠĠĠĠĠĠĠĠĠĠĠĠĠĠĠĠĠĠĠĠĠ",
        "ĠĠĠ"
      ],
      [
        "we",
        "red"
      ],
      [
        "ud",
        "ed"
      ],
      [
        "Ġsay",
        "ing"
      ],
      [
        "Ġus",
        "ing"
      ],
      [
        "Ġpart",
        "icular"
      ],
      [
        "Ġstr",
        "ong"
      ],
      [
        "Ġgr",
        "ou"
      ],
      [
        "Ġey",
        "e"
      ],
      [
        "Ġent",
        "er"
      ],
      [
        "Ġpa",
        "per"
      ],
      [
        "ub",
        "b"
      ],
      [
        "Ġcomm",
        "and"
      ],
      [
        "Ġdiffe",
        "rent"
      ],
      [
        "Ġsomet",
        "imes"
      ],
      [
        "Ġmar",
        "ry"
      ],
      [
        "Ġnear",
        "ly"
      ],
      [
        "ff",
        "ici"
      ],
      [
        "Ġnum",
        "bers"
      ],
      [
        "Ġhur",
        "ry"
      ],
      [
        "ict",
        "ures"
      ],
      [
        "ix",
        "ed"
      ],
      [
        "Ġtry",
        "ing"
      ],
      [
        "Ġchan",
        "ged"
      ],
      [
        "Ġpers",
        "ons"
      ],
      [
        "Ġgener",
        "ally"
      ],
      [
        "Ġint",
        "ro"
      ],
      [
        "Ġfeel",
        "ings"
      ],
      [
        "air",
        "s"
      ],
      [
        "Ġsur",
        "pr"
      ],
      [
        "Ġanim",
        "al"
      ],
      [
        "Ġturn",
        "ed"
      ],
      [
[...]
